'<pad>_'
'<EOS>_'
', _'
'the_'
'._'
'of_'
'to_'
'and_'
'in_'
'a_'
'that_'
'is_'
'-_'
's_'
'’_'
'for_'
' – _'
'be_'
'The_'
'as_'
'are_'
'on_'
'it_'
'with_'
'not_'
'by_'
'has_'
'have_'
'will_'
'from_'
'its_'
'their_'
'more_'
'an_'
'But_'
'was_'
'would_'
'or_'
' “_'
'this_'
'at_'
'US_'
'they_'
'which_'
'than_'
'countries_'
'In_'
'China_'
'can_'
'but_'
'_'
'world_'
' (_'
'been_'
'economic_'
'all_'
'one_'
'government_'
'only_'
'new_'
'also_'
'should_'
'growth_'
'other_'
'” _'
'his_'
'% _'
'about_'
'we_'
'global_'
'political_'
'could_'
'Europe_'
'no_'
'who_'
'such_'
'most_'
': _'
'people_'
'country_'
'; _'
'were_'
'now_'
'if_'
'even_'
'years_'
'so_'
'financial_'
'many_'
'European_'
'This_'
'there_'
'when_'
'economy_'
'policy_'
'some_'
'must_'
'’ _'
'these_'
'It_'
'time_'
'do_'
'into_'
'what_'
'may_'
'he_'
'much_'
'?_'
'had_'
'over_'
'out_'
'And_'
'them_'
'up_'
'long_'
'like_'
'year_'
'crisis_'
') _'
'power_'
'EU_'
'public_'
'United_'
'market_'
'.”_'
'two_'
'because_'
'well_'
'international_'
'between_'
'those_'
'America_'
'I_'
'As_'
'first_'
'A_'
'debt_'
'while_'
'need_'
'. _'
'state_'
'any_'
'just_'
'our_'
'against_'
'how_'
'both_'
'system_'
'For_'
'trade_'
'change_'
'term_'
'Russia_'
'way_'
'leaders_'
'less_'
'high_'
'far_'
'investment_'
'after_'
'If_'
'too_'
'banks_'
'make_'
'become_'
'example_'
'last_'
'own_'
'rate_'
'interest_'
'markets_'
'governments_'
'support_'
'Japan_'
' $_'
'important_'
'President_'
'national_'
'recent_'
'States_'
'rates_'
'military_'
'policies_'
'where_'
'social_'
'American_'
'Indeed_'
'foreign_'
'including_'
'India_'
'Chinese_'
'being_'
'ing_'
'today_'
'future_'
'still_'
'development_'
'does_'
'capital_'
'current_'
'same_'
',” _'
'large_'
'through_'
'economies_'
'war_'
'real_'
't_'
'That_'
'Iran_'
'nuclear_'
'since_'
'right_'
'GDP_'
'Germany_'
'energy_'
'health_'
'risk_'
'likely_'
'might_'
'security_'
'tax_'
'income_'
'end_'
'fiscal_'
'made_'
'take_'
'prices_'
'major_'
'billion_'
'work_'
'without_'
'already_'
'better_'
'under_'
'low_'
'use_'
'good_'
'problem_'
')._'
'), _'
'fact_'
'result_'
'did_'
'Trump_'
'states_'
'demand_'
'1_'
'then_'
'often_'
'central_'
'cannot_'
'ed_'
'help_'
'Israel_'
'part_'
'another_'
'There_'
'They_'
'Bank_'
'oil_'
'private_'
'course_'
'among_'
'three_'
'very_'
'So_'
'We_'
'Asia_'
'region_'
'institutions_'
'order_'
'climate_'
'sector_'
'To_'
'Obama_'
'East_'
'human_'
'before_'
'million_'
'eurozone_'
'money_'
'rather_'
'Moreover_'
'monetary_'
'increase_'
'role_'
'us_'
'around_'
'Union_'
',_'
'least_'
'higher_'
'past_'
'South_'
'World_'
'needed_'
'little_'
'whether_'
'down_'
'companies_'
'based_'
'2_'
'few_'
'inflation_'
'next_'
'case_'
''_'
'developing_'
'problems_'
'approach_'
'needs_'
'led_'
'back_'
'especially_'
'short_'
'Africa_'
'd_'
'spending_'
'process_'
'5_'
'democracy_'
'labor_'
'price_'
'education_'
'toward_'
'clear_'
'rise_'
'reform_'
'called_'
'remains_'
'France_'
'With_'
'why_'
'At_'
'Korea_'
'Iraq_'
'free_'
'during_'
'When_'
'emerging_'
'strong_'
'domestic_'
'decades_'
'means_'
'come_'
'longer_'
'reforms_'
'century_'
'election_'
'growing_'
'point_'
'costs_'
'business_'
'rights_'
'further_'
'efforts_'
'North_'
'level_'
'continue_'
'others_'
'however_'
'almost_'
'different_'
'cost_'
'currency_'
'given_'
'women_'
'West_'
'best_'
'e_'
'ago_'
'seems_'
'you_'
'remain_'
'citizens_'
'One_'
'within_'
'control_'
'poor_'
'yet_'
'potential_'
'key_'
'population_'
'members_'
'increasingly_'
'difficult_'
'benefits_'
'off_'
'making_'
'provide_'
'particularly_'
'000_'
'enough_'
'agreement_'
'put_'
'itself_'
'Middle_'
'exchange_'
'non_'
'question_'
'peace_'
'law_'
'used_'
'able_'
'regional_'
'though_'
'services_'
'Greece_'
'greater_'
'regime_'
'life_'
'While_'
'20_'
'Yet_'
'interests_'
'set_'
'workers_'
'3_'
'resources_'
'Turkey_'
'share_'
'terms_'
'bank_'
'left_'
'What_'
'number_'
'recently_'
'By_'
'After_'
'second_'
'These_'
'small_'
'force_'
'society_'
'never_'
'her_'
'politics_'
'thus_'
'value_'
'every_'
'each_'
'Arab_'
'face_'
'Western_'
'War_'
'say_'
'effective_'
'place_'
'reduce_'
'children_'
'democratic_'
'possible_'
'impact_'
'2008_'
'history_'
'former_'
'run_'
'lower_'
'care_'
'reason_'
'conflict_'
'local_'
'Syria_'
'risks_'
'per_'
'progress_'
'stability_'
'infrastructure_'
'member_'
'ever_'
'half_'
'euro_'
'strategy_'
'common_'
'issues_'
'jobs_'
'access_'
'forces_'
'want_'
'again_'
'great_'
'lead_'
'challenges_'
'create_'
'once_'
'y_'
'Even_'
'themselves_'
'know_'
'investors_'
'sense_'
'action_'
'serious_'
'president_'
'On_'
'him_'
', “_'
'rising_'
'leadership_'
'hard_'
'see_'
'French_'
'research_'
'believe_'
'New_'
'unemployment_'
'view_'
'go_'
'early_'
'get_'
'finance_'
'levels_'
'administration_'
'credit_'
'party_'
'dollar_'
'community_'
'old_'
'rules_'
'Minister_'
'together_'
'account_'
'decision_'
'my_'
'UN_'
'significant_'
'anti_'
'British_'
'Bush_'
'home_'
'Putin_'
'German_'
'poverty_'
'balance_'
'issue_'
'program_'
'ensure_'
'simply_'
'measures_'
'Russian_'
'find_'
'technology_'
'challenge_'
'data_'
'times_'
'increased_'
'Of_'
'decade_'
'across_'
'employment_'
'International_'
'five_'
'pay_'
'deal_'
'full_'
'always_'
'rule_'
'Ukraine_'
'Britain_'
'require_'
'4_'
'systems_'
'IMF_'
'true_'
'address_'
'similar_'
'turn_'
'developed_'
'budget_'
'seem_'
'threat_'
'largest_'
'despite_'
'Some_'
'Party_'
'information_'
'success_'
'open_'
'parties_'
'He_'
'response_'
'lack_'
'day_'
'Pakistan_'
'Americans_'
'Fed_'
'areas_'
'opportunity_'
'conditions_'
'advanced_'
'big_'
'self_'
'food_'
'third_'
'model_'
'move_'
'deficit_'
'consumption_'
'firms_'
'Central_'
'groups_'
'officials_'
'es_'
'weapons_'
'said_'
'pressure_'
'7_'
'campaign_'
'average_'
'whose_'
'productivity_'
'done_'
'hope_'
'assets_'
'start_'
'consequences_'
'young_'
'effects_'
'production_'
'supply_'
'post_'
'focus_'
'Council_'
'6_'
'until_'
'effort_'
'return_'
'politicians_'
'water_'
'gas_'
'leading_'
'fall_'
'taken_'
'banking_'
'requires_'
'cooperation_'
'position_'
'UK_'
'working_'
'single_'
'civil_'
'several_'
'Prime_'
'ways_'
'top_'
'rich_'
'failed_'
'months_'
'changes_'
'scale_'
'cause_'
'largely_'
'created_'
'structural_'
'Japanese_'
'Asian_'
'emissions_'
'Such_'
'powerful_'
'influence_'
'Many_'
'policymakers_'
'majority_'
'opposition_'
'leader_'
'strategic_'
'four_'
'Egypt_'
'voters_'
'main_'
'annual_'
'debate_'
'Islamic_'
'beyond_'
'Palestinian_'
'massive_'
'alone_'
'Today_'
'programs_'
'capacity_'
'relations_'
'violence_'
'perhaps_'
'Fund_'
'natural_'
'rest_'
'period_'
'form_'
'side_'
'ability_'
'10_'
'media_'
'wealth_'
'industry_'
'ECB_'
'taking_'
'prevent_'
'goods_'
'funds_'
'expected_'
'necessary_'
'Nations_'
'benefit_'
'think_'
'job_'
'away_'
'Given_'
'bring_'
'failure_'
'8_'
'increasing_'
'having_'
'aid_'
'makes_'
'idea_'
'decline_'
'shift_'
'lives_'
'achieve_'
'particular_'
'lost_'
'%._'
'sustainable_'
'50_'
'began_'
'Italy_'
'group_'
'give_'
'governance_'
'close_'
'al_'
'elections_'
'she_'
'ly_'
'exports_'
'Afghanistan_'
'seen_'
'official_'
'fear_'
'plan_'
'found_'
'modern_'
'30_'
'2010_'
'carbon_'
'inequality_'
'bad_'
'keep_'
'nearly_'
'globalization_'
'negotiations_'
'later_'
'recovery_'
'play_'
'month_'
'Brazil_'
'taxes_'
'solution_'
'innovation_'
'doing_'
'Instead_'
'improve_'
'either_'
'evidence_'
'economists_'
'age_'
'news_'
'environment_'
'Soviet_'
'agenda_'
'Muslim_'
'build_'
'bonds_'
'became_'
'owing_'
'middle_'
'effect_'
'act_'
'comes_'
'allow_'
'known_'
'look_'
'First_'
'experience_'
'corruption_'
'total_'
'something_'
'living_'
'union_'
'huge_'
'really_'
'behind_'
'sure_'
'nothing_'
'legal_'
'More_'
'vote_'
'highly_'
'Israeli_'
'authorities_'
'Kingdom_'
'things_'
'probably_'
'presidential_'
'Saudi_'
'trillion_'
'values_'
'report_'
'avoid_'
'State_'
'Congress_'
'popular_'
'opportunities_'
'All_'
'step_'
'defense_'
'situation_'
'environmental_'
'powers_'
'traditional_'
'rapid_'
'Now_'
'integration_'
'%, _'
'investments_'
'live_'
'held_'
'0_'
'kind_'
'contrast_'
'cases_'
'Commission_'
'protect_'
'fundamental_'
'using_'
'collapse_'
'hold_'
'goal_'
'recession_'
'indeed_'
'reality_'
'class_'
'actually_'
'deficits_'
'larger_'
'matter_'
'late_'
'boost_'
're_'
'corporate_'
'status_'
'following_'
'Security_'
'worse_'
'limited_'
'land_'
'building_'
'15_'
'individual_'
'reach_'
'coming_'
'call_'
'attention_'
'2009_'
'successful_'
'line_'
'confidence_'
'took_'
';_'
'include_'
'asset_'
'2015_'
'hand_'
'border_'
'reducing_'
'relatively_'
'wrong_'
'outcome_'
'established_'
'cut_'
'According_'
'understand_'
'behavior_'
'standards_'
'African_'
'concerns_'
'minister_'
'Latin_'
'ten_'
'ng_'
'religious_'
'stock_'
'mean_'
'movement_'
'quickly_'
'competition_'
'soon_'
'critical_'
'results_'
'decisions_'
'/_'
'words_'
'produce_'
'freedom_'
'cities_'
'export_'
'easy_'
'direct_'
'unlikely_'
'NEW_'
'responsibility_'
'financing_'
'commitment_'
'certainly_'
'National_'
'relationship_'
'came_'
'attacks_'
'meeting_'
'quality_'
'NATO_'
'Mexico_'
'refugees_'
'creating_'
'Development_'
'“_'
'develop_'
'caused_'
'Spain_'
'meet_'
'above_'
'9_'
'cuts_'
'industrial_'
'general_'
'Barack_'
'” – _'
'fight_'
'Greek_'
'currently_'
'along_'
'near_'
'technologies_'
'intervention_'
'stop_'
'external_'
'deep_'
'Europeans_'
'show_'
'Since_'
'Most_'
'becoming_'
'2012_'
'offer_'
'beginning_'
'worldwide_'
'weak_'
'reserves_'
'path_'
'management_'
'elsewhere_'
'projects_'
'n_'
'millions_'
'days_'
'No_'
'2011_'
'Internet_'
'roughly_'
'products_'
'entire_'
'dangerous_'
'Great_'
'recognize_'
'reasons_'
'G_'
'clearly_'
'men_'
'won_'
'sanctions_'
'Although_'
'fully_'
'relative_'
'continued_'
'performance_'
'independence_'
'basic_'
'below_'
'austerity_'
'sovereign_'
'1990_'
'negative_'
'helped_'
'brought_'
'alternative_'
'family_'
'Monetary_'
'maintain_'
'outside_'
'thing_'
'existing_'
'certain_'
'organizations_'
'accept_'
'everyone_'
'positive_'
'generation_'
'disease_'
'2013_'
'insurance_'
'knowledge_'
'raise_'
'creation_'
'stimulus_'
'source_'
'me_'
'essential_'
'160_'
'forced_'
'according_'
'moral_'
'choice_'
'100_'
'consider_'
'basis_'
'science_'
'proposed_'
'company_'
'victory_'
'era_'
'complex_'
'allowed_'
'Global_'
'thereby_'
'required_'
'output_'
'claim_'
'businesses_'
'death_'
'40_'
'Republican_'
'six_'
'Arabia_'
'prosperity_'
'factors_'
'crises_'
'allies_'
'answer_'
'Indian_'
'framework_'
'continues_'
'available_'
'Economic_'
'man_'
'Meanwhile_'
'leave_'
'25_'
'size_'
'revolution_'
'provided_'
'forward_'
'independent_'
'September_'
'individuals_'
'Second_'
'2014_'
'rapidly_'
'additional_'
'attack_'
'gains_'
'center_'
'target_'
'amount_'
'fuel_'
'How_'
'service_'
'savings_'
'2007_'
'prime_'
'instead_'
'concern_'
'Federal_'
'societies_'
'elected_'
': “_'
'Hamas_'
'office_'
'terrorism_'
'liberal_'
'agreed_'
'personal_'
'damage_'
'funding_'
'argue_'
'saving_'
'de_'
'project_'
'aimed_'
'technological_'
'loss_'
'willing_'
'eventually_'
'school_'
'An_'
'incentives_'
'transition_'
'simple_'
'advantage_'
'reduction_'
'internal_'
'questions_'
'Unfortunately_'
'II_'
'protection_'
'households_'
'zero_'
'r_'
'economics_'
'solutions_'
'record_'
'increases_'
'effectively_'
'related_'
'Finally_'
'wages_'
'thought_'
'ahead_'
'overall_'
'net_'
'facing_'
'claims_'
'turned_'
'talks_'
'reduced_'
'driven_'
'appears_'
'thinking_'
'equity_'
'area_'
'activities_'
'stronger_'
'gain_'
'follow_'
'crucial_'
'loans_'
'impossible_'
'grow_'
'flows_'
'reached_'
'burden_'
'borders_'
'housing_'
'Brexit_'
'nor_'
'Despite_'
'providing_'
'consensus_'
'widely_'
'institutional_'
'ideas_'
'points_'
'obvious_'
'seeking_'
'regulation_'
'shared_'
'diplomatic_'
'Secretary_'
'General_'
'drug_'
'culture_'
'vision_'
'partners_'
'moment_'
'dollars_'
'authority_'
'er_'
'slow_'
'losses_'
'federal_'
'expect_'
'communities_'
'sectors_'
'matters_'
'fail_'
'whole_'
'stable_'
'directly_'
'Clinton_'
'goals_'
'Palestinians_'
'nature_'
'competitive_'
'seek_'
'suggests_'
'neighbors_'
'events_'
'industries_'
'study_'
'liquidity_'
'politically_'
'followed_'
'don_'
'wage_'
'consumers_'
'extreme_'
'Likewise_'
'trying_'
'regions_'
'skills_'
'previous_'
'significantly_'
'consumer_'
'parts_'
'feel_'
'ultimately_'
'establish_'
'city_'
' - _'
'11_'
'let_'
'throughout_'
'Reserve_'
'core_'
'terrorist_'
'responsible_'
'manufacturing_'
'child_'
'begin_'
'gap_'
'wants_'
'property_'
'primary_'
'difference_'
'chance_'
'trust_'
'welfare_'
'warming_'
'cultural_'
'agreements_'
'respect_'
'expansion_'
'Syrian_'
'understanding_'
'easily_'
'Only_'
'Lebanon_'
'seemed_'
'plans_'
'People_'
'Korean_'
'focused_'
'committed_'
'paid_'
'treatment_'
'renminbi_'
'nation_'
'From_'
'60_'
'ground_'
'pursue_'
'YORK_'
'agree_'
'sides_'
'argued_'
'going_'
'contrary_'
'actions_'
'direction_'
'Assad_'
'sometimes_'
'steps_'
'provides_'
'importance_'
'produced_'
'Though_'
'extent_'
'bilateral_'
'Trade_'
'Paris_'
'summit_'
'vulnerable_'
'strengthen_'
'save_'
'pre_'
'mass_'
'lending_'
'air_'
'your_'
'vital_'
'legitimacy_'
'assistance_'
'argument_'
'December_'
'promote_'
'historical_'
'excessive_'
'pro_'
'sources_'
'nbsp_'
'i_'
'Similarly_'
'Not_'
'May_'
'vast_'
'demands_'
'scientific_'
'encourage_'
'Islam_'
'November_'
'12_'
'subsidies_'
'wide_'
'takes_'
'shows_'
'secure_'
'quarter_'
'implement_'
'anything_'
'targets_'
'substantial_'
'reflects_'
'surplus_'
'immediate_'
'competitiveness_'
'wars_'
'try_'
'partly_'
'falling_'
'Iranian_'
'students_'
'o_'
'faster_'
'compared_'
'win_'
'limits_'
'Thus_'
'trend_'
'story_'
'principle_'
'coalition_'
'regulatory_'
'invest_'
'2000_'
'neither_'
'models_'
'Why_'
'George_'
'game_'
'creditors_'
'serve_'
'push_'
'efficient_'
'merely_'
'expectations_'
'Xi_'
'worth_'
'buy_'
'standard_'
'here_'
'whom_'
'adopted_'
'prospects_'
'latest_'
'Its_'
'm_'
'biggest_'
'lose_'
'Perhaps_'
'earlier_'
'changed_'
'announced_'
'2005_'
'safety_'
'reflect_'
'spread_'
'finally_'
'built_'
'uncertainty_'
'threats_'
'principles_'
'manage_'
'faces_'
'trading_'
'therefore_'
'shown_'
'safe_'
'option_'
'managed_'
'special_'
'becomes_'
'head_'
'theory_'
'referendum_'
'abroad_'
'His_'
'range_'
'doubt_'
'reaching_'
'immigration_'
'1980_'
'various_'
'specific_'
'calls_'
'severe_'
'membership_'
'else_'
'broad_'
'Libya_'
'House_'
'boom_'
'thousands_'
'supported_'
'suggest_'
'favor_'
'presidency_'
'happen_'
'fighting_'
'speech_'
'respond_'
'profits_'
'himself_'
'achieved_'
'Republicans_'
'Poland_'
'Cold_'
'tend_'
'drugs_'
'York_'
'2001_'
'commercial_'
'accounts_'
'unable_'
'sovereignty_'
'Abe_'
'commodity_'
'(_'
'training_'
'started_'
'incomes_'
'fund_'
'Both_'
'spend_'
'police_'
'macroeconomic_'
'limit_'
'truth_'
'deliver_'
'appear_'
'Pacific_'
'promise_'
'enable_'
'cash_'
'spent_'
'laws_'
'initiative_'
'designed_'
'Consider_'
'tools_'
'London_'
'Treaty_'
'Gaza_'
'running_'
'book_'
'normal_'
'precisely_'
'easing_'
'widespread_'
'Donald_'
'week_'
'giving_'
'struggle_'
'diseases_'
'candidates_'
'treaty_'
'efficiency_'
'Muslims_'
'Last_'
'resulting_'
'fast_'
'Their_'
'went_'
'space_'
'differences_'
'test_'
'changing_'
'June_'
'intelligence_'
'addition_'
'circumstances_'
'attempt_'
'enormous_'
'causes_'
'structure_'
'payments_'
'Eastern_'
'ties_'
'regard_'
'happened_'
'John_'
'stand_'
'operations_'
'mostly_'
'establishment_'
'context_'
'base_'
'worst_'
'improved_'
'radical_'
'lies_'
'absence_'
'opinion_'
'collective_'
'schools_'
'possibility_'
'estimated_'
'currencies_'
'launched_'
'University_'
'2006_'
'raising_'
'populist_'
'lot_'
'fair_'
'considered_'
'coal_'
'Because_'
' €_'
'rural_'
'prove_'
'message_'
'highest_'
'leaving_'
'construction_'
'Those_'
'- _'
'permanent_'
'drive_'
'army_'
'armed_'
'activity_'
'received_'
'promises_'
'household_'
'hit_'
'LONDON_'
'Organization_'
'Democratic_'
'urban_'
'stage_'
'productive_'
'fossil_'
'depends_'
'revenue_'
'justice_'
'closer_'
'tried_'
'considerable_'
'broader_'
'asked_'
'Another_'
'ratio_'
'final_'
'families_'
'ethnic_'
'capita_'
'bankers_'
'press_'
'fell_'
'deeply_'
'anyone_'
'Merkel_'
'associated_'
'Sunni_'
'revenues_'
'conflicts_'
'Argentina_'
'.)_'
'helping_'
'legislation_'
'danger_'
'borrowing_'
'Al_'
'sustained_'
'subject_'
'resistance_'
'ers_'
'returns_'
'disaster_'
'usually_'
'migration_'
'medical_'
'hundreds_'
'farmers_'
'depend_'
'soft_'
'democracies_'
'multilateral_'
'identity_'
'hands_'
'continent_'
'ensuring_'
'. _'
'imports_'
'factor_'
'succeed_'
'remained_'
'l_'
'involved_'
'Washington_'
'smaller_'
'instability_'
'am_'
'name_'
'generally_'
'comprehensive_'
'present_'
'everything_'
'task_'
'views_'
'goes_'
'economist_'
'person_'
'due_'
'break_'
'raised_'
'heart_'
'agencies_'
'entirely_'
'allowing_'
'unprecedented_'
'regulations_'
'learn_'
'equal_'
'Over_'
'worked_'
'upon_'
'bond_'
'outcomes_'
'emerged_'
'electoral_'
'declared_'
'controls_'
'candidate_'
'troops_'
'sufficient_'
'percentage_'
'During_'
'credibility_'
'capitalism_'
'weeks_'
'ended_'
'default_'
'cancer_'
'Is_'
'DC_'
'mind_'
'choose_'
'recognized_'
'faced_'
'body_'
'unless_'
'places_'
'added_'
'suffering_'
'sought_'
'July_'
'tensions_'
'supposed_'
'mainly_'
'gold_'
'receive_'
'ongoing_'
'greatest_'
'sharing_'
'quite_'
'W_'
'moving_'
'getting_'
'agricultural_'
'Revolution_'
'Islamist_'
'owned_'
'overcome_'
'killed_'
'intellectual_'
'conference_'
'undermine_'
'expand_'
'estate_'
'organization_'
'met_'
'generate_'
'counter_'
'stands_'
'populations_'
'contribute_'
'sound_'
'potentially_'
'participation_'
'implies_'
'2016_'
'regimes_'
'practice_'
'constitution_'
'priority_'
'ally_'
'Kremlin_'
'restore_'
'offered_'
'nations_'
'improving_'
'imposed_'
'backed_'
'&_'
'told_'
'proposal_'
'practices_'
'migrants_'
'forms_'
'barriers_'
'Financial_'
'viewed_'
'hardly_'
'70_'
'rhetoric_'
'mid_'
'initiatives_'
'geopolitical_'
'explain_'
'diplomacy_'
'Then_'
'transformation_'
'measure_'
'deaths_'
'scientists_'
'numbers_'
'Rather_'
'January_'
'Court_'
'2004_'
'ordinary_'
'lesson_'
'experts_'
'conservative_'
'supporters_'
'front_'
'estimates_'
'digital_'
'afford_'
'Republic_'
'slowdown_'
'played_'
'arms_'
'alliance_'
'Sea_'
'violent_'
'strategies_'
'southern_'
'resource_'
'medium_'
'implemented_'
'universal_'
'sharp_'
'road_'
'otherwise_'
'decided_'
'commitments_'
'analysis_'
'whatever_'
'positions_'
'cross_'
'adjustment_'
'Kim_'
'join_'
'combined_'
'advance_'
'CAMBRIDGE_'
'ruling_'
'Ireland_'
'scenario_'
'fallen_'
'pace_'
'green_'
'double_'
'debts_'
'strength_'
'lines_'
'distribution_'
'twentieth_'
'round_'
'includes_'
'sharply_'
'movements_'
'fears_'
'conventional_'
'Our_'
'CO2_'
'mechanisms_'
'easier_'
'continuing_'
'ation_'
'ask_'
'electricity_'
'degree_'
'actors_'
'March_'
'territory_'
'implications_'
'affairs_'
' "_'
'rely_'
'leverage_'
'suffer_'
'planet_'
'options_'
'appropriate_'
'visit_'
'cycle_'
'belief_'
';&#_'
'wanted_'
'resolution_'
'refugee_'
'imbalances_'
'experienced_'
'cutting_'
'amounts_'
'type_'
'Just_'
'standing_'
'patients_'
'driving_'
'defined_'
'aggregate_'
'80_'
'everywhere_'
'Hong_'
'talk_'
'proved_'
'learned_'
'deflation_'
'causing_'
'language_'
'affect_'
'affected_'
'Palestine_'
'protests_'
'inevitable_'
'expensive_'
'Third_'
'Shia_'
'seven_'
'bubble_'
'Kong_'
'wing_'
'inclusive_'
'impose_'
'October_'
'Nor_'
'Erdoğan_'
'D_'
'combination_'
'sustain_'
'objectives_'
'constitutional_'
'prospect_'
'hopes_'
'sign_'
'resolve_'
'list_'
'gave_'
'reflected_'
'active_'
'nationalism_'
'light_'
'Without_'
'Communist_'
'truly_'
'immigrants_'
'desire_'
'Climate_'
'promised_'
'looking_'
'regulators_'
'peaceful_'
'parliament_'
'Democrats_'
'ASEAN_'
'2003_'
'towards_'
'ready_'
'holding_'
'gone_'
'Two_'
'underlying_'
'enterprises_'
'virtually_'
'Sarkozy_'
'poorest_'
'perspective_'
'guarantee_'
'destruction_'
'corporations_'
'agriculture_'
'senior_'
'credible_'
'200_'
'believed_'
'Turkish_'
'500_'
'works_'
'victims_'
'secular_'
'room_'
'networks_'
'declining_'
'trends_'
'seriously_'
'elites_'
'carry_'
'prepared_'
'minority_'
'engage_'
'although_'
'eight_'
'choices_'
'physical_'
'ones_'
'offers_'
'maintaining_'
'immediately_'
'heavily_'
'figure_'
'dynamic_'
'developments_'
'Indonesia_'
'typically_'
'shape_'
'rs_'
'ministers_'
'authoritarian_'
'mechanism_'
'house_'
'fuels_'
'determined_'
'studies_'
'proposals_'
'product_'
'generations_'
'Treasury_'
'Australia_'
'occurred_'
'objective_'
'field_'
'elite_'
'quantitative_'
'determine_'
'defeat_'
'aim_'
'Taliban_'
'whereas_'
'fueled_'
'bringing_'
'supporting_'
'style_'
'mistake_'
'Other_'
'sell_'
'lessons_'
'blame_'
'promoting_'
'described_'
'decide_'
'court_'
'concerned_'
'Vietnam_'
'strengthening_'
'restructuring_'
'Taiwan_'
'temporary_'
'addressing_'
'Jewish_'
'worry_'
'opponents_'
'expanding_'
'equivalent_'
'starting_'
'leads_'
'bear_'
'accepted_'
'Venezuela_'
'turning_'
'relief_'
'liberalization_'
'Will_'
'paying_'
'perceived_'
'bound_'
'relevant_'
'presence_'
'exit_'
'divided_'
'crimes_'
'northern_'
'looks_'
'economically_'
'assume_'
'1970_'
'useful_'
'represents_'
'heavy_'
'discussion_'
'demonstrated_'
'clean_'
'C_'
'willingness_'
'knows_'
'keeping_'
'excess_'
'event_'
'” (_'
'firm_'
'deeper_'
'profit_'
'online_'
'apparent_'
'flow_'
'Parliament_'
'" _'
'opening_'
'losing_'
'dramatically_'
'Vladimir_'
'technical_'
'summer_'
'purpose_'
'compromise_'
'team_'
'pursuing_'
'possibly_'
'formal_'
'equally_'
'nationalist_'
'meant_'
'hours_'
'territorial_'
'complete_'
'bottom_'
'unlike_'
'players_'
'issued_'
'contributed_'
'45_'
'18_'
'17_'
'twenty_'
'solve_'
'Like_'
'h_'
'controlled_'
'annually_'
'HIV_'
'playing_'
'k_'
'gained_'
'ts_'
'track_'
'surprise_'
'occur_'
'parliamentary_'
'legitimate_'
'figures_'
'August_'
'transparency_'
'greenhouse_'
'dramatic_'
'90_'
'trouble_'
'robust_'
'ies_'
'extremely_'
'exactly_'
'begun_'
'Qaeda_'
'necessarily_'
'healthy_'
'grown_'
'closely_'
'showed_'
'setting_'
'represent_'
'pattern_'
'institution_'
'humanitarian_'
'adopt_'
'unique_'
'reported_'
'religion_'
'processes_'
'partner_'
'Under_'
'13_'
'moderate_'
'mention_'
'learning_'
'kept_'
'friends_'
'encouraging_'
'Or_'
'However_'
'Fortunately_'
'sea_'
'published_'
'observers_'
'civilian_'
'arrangements_'
'Here_'
'Gulf_'
'shocks_'
'requirements_'
'genuine_'
'WASHINGTON_'
'Nobel_'
'Depression_'
'terrorists_'
'settlement_'
'gender_'
'exist_'
'Health_'
'April_'
'unsustainable_'
'structures_'
'race_'
'none_'
'mandate_'
'intended_'
'critics_'
'defend_'
'billions_'
'understood_'
'signed_'
'recognition_'
'opposite_'
'happens_'
'employees_'
'dependent_'
') – _'
'producers_'
'priorities_'
'girls_'
'transfer_'
'survival_'
'signs_'
'putting_'
'linked_'
'universities_'
'host_'
'establishing_'
'emerge_'
'ambitious_'
'achieving_'
'youth_'
'planning_'
'historic_'
'criticism_'
'chief_'
'board_'
'Social_'
'reserve_'
'urgent_'
'paper_'
'constraints_'
'saw_'
'incentive_'
'design_'
'surely_'
'pollution_'
'genetic_'
'fewer_'
'remaining_'
'purchases_'
'pension_'
'moved_'
'promising_'
'launch_'
'drop_'
'volatility_'
'remarkable_'
'included_'
'dominated_'
'centuries_'
'TPP_'
'Italian_'
'Canada_'
'producing_'
'inadequate_'
'fixed_'
'addressed_'
'served_'
'stake_'
'plants_'
'homes_'
'emergence_'
'capable_'
'born_'
'Iraqi_'
'yield_'
'gradually_'
'OECD_'
'weakness_'
'reports_'
'implementation_'
'essentially_'
'battle_'
'adequate_'
'starters_'
'profound_'
'meaning_'
'embrace_'
'Governments_'
'Georgia_'
'14_'
'wave_'
'surprising_'
'solidarity_'
'securities_'
'says_'
'educational_'
'educated_'
'dialogue_'
'Chile_'
'stance_'
'risky_'
'concept_'
'Once_'
'Committee_'
'Beijing_'
'votes_'
'primarily_'
'fire_'
'failing_'
'AIDS_'
'via_'
'threatened_'
'targeted_'
'stagnation_'
'scope_'
'joint_'
'eliminate_'
'borrow_'
'tough_'
'engagement_'
'enabled_'
'restrictions_'
'regardless_'
'pressures_'
'costly_'
'aggressive_'
'add_'
'16_'
'suffered_'
'finding_'
'boosting_'
'series_'
'innovative_'
'identify_'
'grew_'
'g_'
'exposed_'
'concluded_'
'carried_'
' ($_'
'wake_'
'red_'
'introduced_'
'imagine_'
'bill_'
'Netanyahu_'
'opposed_'
'ideological_'
'sustainability_'
'shock_'
'rejected_'
'legacy_'
'Foreign_'
'Wall_'
'England_'
'Cameron_'
'pushed_'
'fate_'
'terror_'
'approaches_'
'QE_'
'wider_'
'taxpayers_'
'strongly_'
'oriented_'
'mission_'
'cheap_'
'Hezbollah_'
'Growth_'
'Chancellor_'
'st_'
'repeatedly_'
'ness_'
'modest_'
'investing_'
'exception_'
'engaged_'
'died_'
'compete_'
'S_'
'Paul_'
'contracts_'
'Still_'
'zone_'
'transfers_'
'capabilities_'
'calling_'
'someone_'
'protecting_'
'multi_'
'integrated_'
'crime_'
'Investment_'
'Defense_'
'David_'
'financed_'
'cover_'
'conducted_'
'Nigeria_'
'wrote_'
'woman_'
'undermining_'
'sort_'
'sales_'
'mere_'
'equality_'
'quo_'
'pushing_'
'practical_'
'intensive_'
'ignore_'
'harm_'
'2002_'
'renewable_'
'ble_'
'apply_'
'unity_'
'transactions_'
'tell_'
'humans_'
'felt_'
'ending_'
'emergency_'
'Until_'
'weight_'
'previously_'
'obligations_'
'nineteenth_'
'cyber_'
'February_'
'Egyptian_'
'transport_'
'network_'
'material_'
'appreciation_'
'accompanied_'
'Israelis_'
'Beyond_'
'suggested_'
'speak_'
'faith_'
've_'
'package_'
'link_'
'failures_'
'earnings_'
'confront_'
'Pakistani_'
'Jordan_'
'withdrawal_'
'replace_'
'preventing_'
'notably_'
'completely_'
'attractive_'
'welcome_'
'stay_'
'regarded_'
'reasonable_'
'norms_'
'newly_'
'invasion_'
'bailout_'
'arguments_'
'alike_'
'aging_'
'supplies_'
'substantially_'
'speed_'
'logic_'
'elements_'
'Yes_'
'My_'
'2030_'
'uncertain_'
'sentiment_'
'released_'
'latter_'
'die_'
'Singapore_'
'mutual_'
'malaria_'
'budgets_'
'accounting_'
'Jews_'
'turmoil_'
'proliferation_'
'killing_'
'bubbles_'
'allows_'
'Nonetheless_'
'survive_'
'enhance_'
'effectiveness_'
'realize_'
'operate_'
'ion_'
'buying_'
'Countries_'
'weaker_'
'search_'
'ons_'
'charge_'
'2020_'
'polls_'
'minimum_'
'holds_'
'depression_'
'disputes_'
'delivered_'
'criminal_'
'claimed_'
'bankruptcy_'
'300_'
'placed_'
'doesn_'
'Partnership_'
'threatening_'
'expense_'
'Russians_'
'Assembly_'
'rose_'
'flexibility_'
'contain_'
'offset_'
'contributions_'
'Plan_'
'son_'
'managers_'
'Mubarak_'
'.  _'
'seemingly_'
'operating_'
'explanation_'
'creates_'
'attempts_'
'advances_'
'Senate_'
'got_'
'generated_'
'daily_'
'coup_'
'attract_'
'Sweden_'
'strike_'
'sheet_'
'shareholders_'
'publicly_'
'Portugal_'
'Act_'
'1990s_'
'word_'
'instruments_'
'humanity_'
'consistent_'
'Yemen_'
'slowly_'
'mortgage_'
'ideology_'
'gives_'
'fragile_'
'examples_'
'escape_'
'declined_'
'conclusion_'
'co_'
'bold_'
'Supreme_'
'tests_'
'nine_'
'negotiating_'
'functioning_'
'decisive_'
'actual_'
'Colombia_'
'trial_'
'soldiers_'
'negotiate_'
'initial_'
'harder_'
'executive_'
'convinced_'
'closed_'
'Christian_'
'species_'
'sent_'
'nowadays_'
'ment_'
'inflows_'
'father_'
'enter_'
'coordination_'
'appeal_'
'Furthermore_'
'35_'
'surpluses_'
'solar_'
'reverse_'
'mobile_'
'inevitably_'
'illegal_'
'ill_'
'demonstrate_'
'television_'
'saying_'
'ruled_'
'implementing_'
'corrupt_'
'barely_'
'balanced_'
'wealthy_'
'vis_'
'successfully_'
'parents_'
'offering_'
'joined_'
'ideal_'
'exercise_'
'contribution_'
'wind_'
'viable_'
'users_'
'passed_'
'occupation_'
'correct_'
'Street_'
'weaken_'
'warning_'
'statement_'
'knew_'
'discussions_'
'devastating_'
'subsequent_'
'periphery_'
'extra_'
'expressed_'
'demanding_'
'Spring_'
'Keynes_'
'undoubtedly_'
'threaten_'
'table_'
'review_'
'researchers_'
'nominal_'
'import_'
'enabling_'
'ambitions_'
'White_'
'Energy_'
'voted_'
'stress_'
'resulted_'
'missile_'
'interventions_'
'dead_'
'acting_'
'California_'
'white_'
'variety_'
'successor_'
'extended_'
'computer_'
'voting_'
'revealed_'
'predict_'
'narrow_'
'flexible_'
'expanded_'
'engineering_'
'dominant_'
'demographic_'
'customers_'
'Whether_'
'Human_'
'south_'
'narrative_'
'Tunisia_'
'returned_'
'replaced_'
'renewed_'
'purchase_'
'professional_'
'painful_'
'counterparts_'
'Kosovo_'
'usual_'
'revolutionary_'
'protest_'
'heads_'
'consolidation_'
'centers_'
'Much_'
'systemic_'
'rulers_'
'reaction_'
'momentum_'
'happening_'
'fundamentally_'
'function_'
'badly_'
'Spanish_'
'1960_'
'taxation_'
'rescue_'
'relationships_'
'rarely_'
'partnership_'
'leaves_'
'deals_'
'accountability_'
'Department_'
'Can_'
'write_'
'weakening_'
'transparent_'
'shifting_'
'sheets_'
'posed_'
'improvement_'
'diverse_'
'dispute_'
'stories_'
'phase_'
'frequently_'
'concerning_'
'applied_'
'sub_'
'refused_'
'participants_'
'ownership_'
'managing_'
'lacks_'
'ity_'
'ic_'
'globally_'
'divide_'
'communist_'
'chronic_'
'charges_'
'brain_'
'weakened_'
'warned_'
'unions_'
'thirds_'
'condition_'
'assessment_'
'adverse_'
'Nevertheless_'
'Netherlands_'
'1997_'
'yields_'
'wisdom_'
'struggling_'
'mistakes_'
'mainstream_'
'image_'
'guarantees_'
'extend_'
'encouraged_'
'Thailand_'
'Germans_'
'Blair_'
'university_'
'twice_'
'journalists_'
'eyes_'
'civilians_'
'academic_'
'Myanmar_'
'22_'
'united_'
'peak_'
'organized_'
'fourth_'
'borrowers_'
'Atlantic_'
'version_'
'smart_'
'simultaneously_'
'progressive_'
'innovations_'
'facilities_'
'downward_'
'destroy_'
'Philippines_'
'weather_'
'valuable_'
'treated_'
'ting_'
'retirement_'
'proportion_'
'pain_'
'measured_'
'lasting_'
'compensation_'
'approval_'
'alternatives_'
'1989_'
'uses_'
'supposedly_'
'responses_'
'raises_'
'pursued_'
'imperative_'
'eastern_'
'dream_'
'courts_'
'black_'
'Unlike_'
'Peace_'
'surge_'
'similarly_'
'provision_'
'mental_'
'kinds_'
'helps_'
'displaced_'
'debates_'
'complicated_'
'Kenya_'
'Free_'
'Brotherhood_'
'shares_'
'methods_'
'funded_'
'except_'
'damaging_'
'Rights_'
'P_'
'24_'
'1930_'
'stimulate_'
'responsibilities_'
'purchasing_'
'facts_'
'aftermath_'
'Saddam_'
'waste_'
'ultimate_'
'tradition_'
'selling_'
'pointed_'
'multiple_'
'downturn_'
'block_'
'advice_'
'R_'
'Modi_'
'streets_'
'stopped_'
'discipline_'
'broadly_'
'blood_'
'Sudan_'
'Bangladesh_'
'showing_'
'proven_'
'original_'
'cars_'
'Institute_'
'worried_'
'voice_'
'trials_'
'transform_'
'marked_'
'mark_'
'generating_'
'draw_'
'c_'
'bigger_'
'atmosphere_'
'Hungary_'
'ethical_'
'discrimination_'
'dealing_'
'capture_'
'bodies_'
'aside_'
'adjusted_'
'Cuba_'
'Change_'
'strengthened_'
'sexual_'
'root_'
'reliable_'
'fails_'
'chemical_'
'chaos_'
'triggered_'
'thanks_'
'properly_'
'opened_'
'guide_'
'facilitate_'
'diversity_'
'consistently_'
'component_'
'brings_'
'abandon_'
'travel_'
'succeeded_'
'runs_'
'populism_'
'participate_'
'minorities_'
'consequence_'
'confrontation_'
'brutal_'
'Angela_'
'winning_'
'types_'
'staff_'
'presidents_'
'overwhelming_'
'mobility_'
'lived_'
'lie_'
'gets_'
'expenditures_'
'carefully_'
'aims_'
'Dutch_'
'representatives_'
'materials_'
'hunger_'
'foundation_'
'extremists_'
'drawn_'
'depreciation_'
'colleagues_'
'argues_'
'stocks_'
'separate_'
'secondary_'
'proper_'
'prefer_'
'patterns_'
'limiting_'
'Policy_'
'1999_'
'treat_'
'send_'
'phenomenon_'
'inclusion_'
'identified_'
'equipment_'
'considerably_'
'aware_'
'abuse_'
'undermined_'
'somewhat_'
'read_'
'prosperous_'
'manner_'
'conduct_'
'concrete_'
'benefited_'
'appeared_'
'apparently_'
'Justice_'
'Bill_'
'trigger_'
'stem_'
'rational_'
'index_'
'forcing_'
'famous_'
'High_'
'statements_'
'policymaking_'
'perfect_'
'governing_'
'coverage_'
'car_'
'Robert_'
'Agency_'
'tool_'
'outright_'
'notion_'
'monopoly_'
'dependence_'
'challenging_'
'anniversary_'
'Harvard_'
'Any_'
'Abbas_'
'sophisticated_'
'le_'
'justify_'
'invested_'
'initially_'
'greatly_'
'gaining_'
'enjoy_'
'recover_'
'maintained_'
'grounds_'
'accelerate_'
'Agreement_'
'2017_'
'1980s_'
' , _'
'wonder_'
'transformed_'
'plant_'
'negotiated_'
'meaningful_'
'focusing_'
'estimate_'
'enemies_'
'collapsed_'
'assumed_'
'She_'
'PARIS_'
'Moscow_'
'Mediterranean_'
'Let_'
'repression_'
'plenty_'
'deposits_'
'characterized_'
'cells_'
'advantages_'
'Morsi_'
'Berlin_'
'surveillance_'
'spirit_'
'reliance_'
'prison_'
'platform_'
'north_'
'loan_'
'impressive_'
'extraordinary_'
'adapt_'
'unconventional_'
'responded_'
'ban_'
'wish_'
'surprisingly_'
'neighboring_'
'minds_'
'improvements_'
'entrepreneurs_'
'el_'
'doctors_'
'connected_'
'chains_'
'believes_'
'apart_'
'Copenhagen_'
'Brussels_'
'wait_'
'ty_'
'slightly_'
'scheme_'
'rooted_'
'moves_'
'donors_'
'None_'
'ISIS_'
'Big_'
'suddenly_'
'resilience_'
'presented_'
'island_'
'ignored_'
'heard_'
'female_'
'commit_'
'Political_'
'BRICS_'
'workforce_'
'preserve_'
'planned_'
'operation_'
'emphasis_'
'communism_'
'City_'
'Burma_'
'Among_'
'unemployed_'
'tech_'
'sum_'
'pass_'
'partnerships_'
'oppose_'
'enforcement_'
'creative_'
'Reagan_'
'Malaysia_'
'Kurdish_'
'Every_'
'English_'
'threatens_'
'shifts_'
'secret_'
'noted_'
'involvement_'
'insist_'
'experiencing_'
'backing_'
'amp_'
'True_'
'vehicles_'
'represented_'
'realistic_'
'directed_'
'combat_'
'caught_'
'Who_'
'remember_'
'regarding_'
'poorer_'
'older_'
'obstacles_'
'meetings_'
'fueling_'
'enhancing_'
'contract_'
'Goals_'
'Forum_'
'skilled_'
'provisions_'
'perception_'
'birth_'
'agency_'
'You_'
'retain_'
'quick_'
'pressing_'
'pose_'
'manipulation_'
'entered_'
'didn_'
'Southeast_'
'28_'
'ted_'
'survey_'
'skill_'
'rightly_'
'predicted_'
'persistent_'
'happy_'
'difficulties_'
'cyclical_'
'content_'
'attempting_'
' _'
'yen_'
'written_'
'sensible_'
'resort_'
'resist_'
'ourselves_'
'imposing_'
'determination_'
'date_'
'urgently_'
'slower_'
'protected_'
'mortgages_'
'minded_'
'match_'
'links_'
'involving_'
'involve_'
'headed_'
'albeit_'
'activists_'
'Nuclear_'
'vaccines_'
'talent_'
'spur_'
'prepare_'
'liabilities_'
'kill_'
'informal_'
'influential_'
'indicators_'
'false_'
'expression_'
'compelling_'
'broken_'
'asylum_'
'Sustainable_'
'Should_'
'Qaddafi_'
'tion_'
'sex_'
'prolonged_'
'picture_'
'obviously_'
'isolation_'
'en_'
'employers_'
'dictatorship_'
'Hitler_'
'Conference_'
'Clearly_'
'Afghan_'
'severely_'
'reductions_'
'rare_'
'protectionism_'
'openly_'
'ns_'
'internationally_'
'interested_'
'avoided_'
'Islamists_'
'statistics_'
'risen_'
'poorly_'
'intervene_'
'inefficient_'
'chain_'
'careful_'
'achievement_'
'Chávez_'
'Before_'
'1998_'
'targeting_'
'modernization_'
'inside_'
'guaranteed_'
'falls_'
'evident_'
'Board_'
'Authority_'
'volatile_'
'u_'
'tackle_'
'reluctant_'
'ous_'
'insufficient_'
'earn_'
'dangers_'
'approved_'
'Three_'
'Stability_'
'Keynesian_'
'19_'
'); _'
'tragedy_'
'strikes_'
'removed_'
'prominent_'
'patient_'
'missing_'
'king_'
'features_'
'extremism_'
'dominance_'
'catastrophe_'
'advocates_'
'acknowledge_'
'accused_'
'Public_'
'23_'
'ry_'
'residents_'
'quarters_'
'neo_'
'importantly_'
'imply_'
'fulfill_'
'finances_'
'crash_'
'assumption_'
'acts_'
'Saharan_'
'75_'
'slowing_'
'ranging_'
'projected_'
'openness_'
'onto_'
'inability_'
'enemy_'
'ease_'
'dropped_'
'books_'
'binding_'
'Polish_'
'Others_'
'Fatah_'
'underway_'
'sensitive_'
'pharmaceutical_'
'destroyed_'
'Bashar_'
'27_'
'2050_'
'ring_'
'mounting_'
'granted_'
'expenditure_'
'animals_'
'Recent_'
'Jerusalem_'
'Convention_'
'stabilize_'
'indicate_'
'ends_'
'acceptable_'
'Jinping_'
'Ebola_'
'Constitution_'
'Arabs_'
'struck_'
'seats_'
'rebalancing_'
'medicine_'
'exporters_'
'delay_'
'couple_'
'coordinated_'
'abandoned_'
'Scotland_'
'Hillary_'
'Denmark_'
'vulnerability_'
'sold_'
'sites_'
'rival_'
'populists_'
'exists_'
'waiting_'
'sudden_'
'signal_'
'repeated_'
'release_'
'gradual_'
'feeling_'
'define_'
'background_'
'Research_'
'Labour_'
'Hollande_'
'Google_'
'Education_'
'1991_'
'tightening_'
'serving_'
'requiring_'
'ling_'
'generous_'
'fields_'
'evolution_'
'erupted_'
'electorate_'
'contributing_'
'constant_'
'Unless_'
'Stalin_'
'% – _'
'roads_'
'outlook_'
'motivated_'
'mitigate_'
'anger_'
'Shanghai_'
'Musharraf_'
'Mexican_'
'z_'
'tradable_'
'shale_'
'seeks_'
'reversed_'
'resolved_'
'reject_'
'ors_'
'expertise_'
'comparable_'
'awareness_'
'aspirations_'
'asking_'
'anxiety_'
'analysts_'
'accession_'
'absolute_'
'WTO_'
'vaccine_'
'turns_'
'th_'
'mix_'
'fill_'
'controversial_'
'cell_'
'Each_'
'Democracy_'
'21_'
'1979_'
'visible_'
'prevented_'
'numerous_'
'ions_'
'foster_'
'explained_'
'constrained_'
'competing_'
'ce_'
'assess_'
'anywhere_'
'affordable_'
'Army_'
'testing_'
'spring_'
'sooner_'
'looked_'
'lenders_'
'imperial_'
'existence_'
'earth_'
'code_'
'avoiding_'
'] _'
'un_'
'monitoring_'
'halt_'
'foreigners_'
'eager_'
'devaluation_'
'destructive_'
'arguing_'
'Government_'
'trap_'
'pursuit_'
'politician_'
'platforms_'
'peoples_'
'lend_'
'empire_'
'desperate_'
'autonomy_'
'Serbia_'
'saved_'
'procedures_'
'plays_'
'fifth_'
'favorable_'
'chances_'
'campaigns_'
'Romney_'
'Cyprus_'
'tens_'
'shadow_'
'problematic_'
'persuade_'
'foundations_'
'convergence_'
'concentrated_'
'communications_'
'adjust_'
'Finance_'
'Berlusconi_'
'sectarian_'
'richer_'
'reconciliation_'
'periods_'
'executives_'
'division_'
'count_'
'chose_'
'."_'
'retail_'
'respectively_'
'machines_'
'friendly_'
'fresh_'
'feed_'
'enhanced_'
'enforce_'
'command_'
'cheaper_'
'announcement_'
'adoption_'
'Norway_'
'Khamenei_'
'virus_'
'supports_'
'realized_'
'forecast_'
'feature_'
'facto_'
'elect_'
'doctrine_'
'criteria_'
'commodities_'
'claiming_'
'adopting_'
'DNA_'
'Are_'
'rating_'
'payment_'
'love_'
'legislative_'
'intense_'
'fellow_'
'dominate_'
'divisions_'
'backlash_'
'attitudes_'
'arise_'
'ancient_'
'actively_'
'Where_'
'Kurds_'
'King_'
'' _'
'poses_'
'optimistic_'
'murder_'
'justified_'
'judicial_'
'judges_'
'fundamentals_'
'accountable_'
'unit_'
'reputation_'
'discussed_'
'discuss_'
'cope_'
'conclude_'
'communication_'
'classes_'
'channels_'
'achievements_'
'Macron_'
'Kyoto_'
'?”_'
'toxic_'
'stated_'
'solid_'
'inflationary_'
'familiar_'
'committee_'
'Group_'
'Facebook_'
'Bernanke_'
'unwilling_'
'stood_'
'pensions_'
'memory_'
'lowest_'
'inspired_'
'hour_'
'hoped_'
'giant_'
'disasters_'
'convince_'
'cabinet_'
'beneficial_'
'begins_'
'Nazi_'
'Earth_'
'Deng_'
'Chairman_'
'Ahmadinejad_'
'unfair_'
'student_'
'sets_'
'propaganda_'
'principal_'
'predictable_'
'performing_'
'judgment_'
'grand_'
'extensive_'
'engine_'
'dark_'
'alliances_'
'Cooperation_'
'400_'
'weapon_'
'upcoming_'
'ratios_'
'purposes_'
'nt_'
'marriage_'
'introduce_'
'details_'
'catch_'
'alongside_'
'Having_'
'1970s_'
'tariffs_'
'recognizing_'
'genocide_'
'famously_'
'eye_'
'donor_'
'difficulty_'
'computers_'
'balances_'
'art_'
'Nixon_'
'Center_'
'Back_'
'sufficiently_'
'street_'
'fought_'
'formed_'
'flight_'
'flawed_'
'exposure_'
'explains_'
'eliminating_'
'contemporary_'
'Qatar_'
'Mao_'
'F_'
'Against_'
' [_'
'yes_'
'reinforced_'
'regular_'
'prior_'
'mortality_'
'likelihood_'
'entry_'
'edge_'
'earned_'
'dynamics_'
'distant_'
'disastrous_'
'delivery_'
'deepening_'
'creditor_'
'congressional_'
'arrangement_'
'acute_'
'Women_'
'Times_'
'volume_'
'unstable_'
'te_'
'software_'
'revive_'
'reinforce_'
'realities_'
'genes_'
'exceed_'
'equilibrium_'
'enacted_'
'considerations_'
'circle_'
'Switzerland_'
'BERKELEY_'
'1950_'
' – “_'
'tactics_'
'ranks_'
'puts_'
'integrity_'
'element_'
'dilemma_'
'crops_'
'bureaucracy_'
'bomb_'
'attempted_'
'Five_'
'Euro_'
'1995_'
'weaknesses_'
'wall_'
'versus_'
'typical_'
'tons_'
'somehow_'
'significance_'
'route_'
'remove_'
'produces_'
'missiles_'
'makers_'
'isolated_'
'employed_'
'E_'
'traditionally_'
'striking_'
'slowed_'
'restoring_'
'refuse_'
'observed_'
'nonetheless_'
'ism_'
'dignity_'
'considering_'
'affecting_'
'Worse_'
'Whatever_'
'Indians_'
';&_'
'65_'
'26_'
'understandable_'
'territories_'
'stakes_'
'reduces_'
'popularity_'
'plus_'
'mobilize_'
'founded_'
'deny_'
'demanded_'
'confronting_'
'accelerating_'
'Law_'
'Jong_'
'wellbeing_'
'treaties_'
'transportation_'
'shifted_'
'relying_'
'rejection_'
'regularly_'
'ran_'
'p_'
'marginal_'
'denied_'
'collaboration_'
'chosen_'
'Summit_'
'1945_'
'!_'
'tension_'
'telling_'
'suicide_'
'steadily_'
'representative_'
'male_'
'judge_'
'happiness_'
'driver_'
'discovered_'
'cooperate_'
'colonial_'
'challenged_'
'career_'
'breaking_'
'Trans_'
'Millennium_'
'Jean_'
'unilateral_'
'talking_'
'selection_'
'overseas_'
'lay_'
'investor_'
'informed_'
'gaps_'
'evil_'
'enterprise_'
'deserve_'
'blow_'
'Year_'
'Ukrainian_'
'TB_'
'Somalia_'
'Northern_'
'Ben_'
'150_'
'trained_'
'supervision_'
'refusal_'
'pricing_'
'panic_'
'hurt_'
'foremost_'
'experiences_'
'desirable_'
'adding_'
':_'
'tendency_'
'teachers_'
'shortages_'
'prevention_'
'pragmatic_'
'machine_'
'laureate_'
'governmental_'
'follows_'
'disorder_'
'constructive_'
'appointed_'
'animal_'
'Woods_'
'SDGs_'
'Greenspan_'
'Bretton_'
'Alliance_'
'1992_'
'watch_'
'situations_'
'schemes_'
'protectionist_'
'owners_'
'newspaper_'
'map_'
'inter_'
'heat_'
'hear_'
'followers_'
'fix_'
'feasible_'
'explicitly_'
'components_'
'citizen_'
'catastrophic_'
'cast_'
'bills_'
'accurate_'
'Office_'
'Foundation_'
'wise_'
'vice_'
'ultra_'
'tobacco_'
'sight_'
'receiving_'
'neighbor_'
'insecurity_'
'implicit_'
'hostile_'
'finds_'
'enables_'
'comparison_'
'bit_'
'attitude_'
'aspects_'
'acceptance_'
'abuses_'
'T_'
'Several_'
'Lehman_'
'CEO_'
'à_'
'worker_'
'surrounding_'
'steady_'
'prevailing_'
'phone_'
'naturally_'
'mother_'
'introduction_'
'historically_'
'farm_'
'explicit_'
'emphasized_'
'eliminated_'
'definition_'
'camp_'
'appreciate_'
'Ethiopia_'
'unrest_'
'tsunami_'
'speaking_'
'shaping_'
'resolving_'
'optimism_'
'joining_'
'involves_'
'ineffective_'
'hedge_'
'fine_'
'fairly_'
'embraced_'
'door_'
'declines_'
'criticized_'
'Le_'
'Hussein_'
'ocean_'
'occupied_'
'note_'
'lowering_'
'judiciary_'
'film_'
'competitors_'
'bolster_'
'adjustments_'
'Industrial_'
'1994_'
'upward_'
'shortage_'
'shaped_'
'preferred_'
'desperately_'
'delivering_'
'declaration_'
'constitute_'
'TV_'
'Road_'
'treatments_'
'seeing_'
'relies_'
'pull_'
'implying_'
'governed_'
'fit_'
'experiment_'
'duty_'
'doubts_'
'dioxide_'
'differently_'
'confident_'
'Business_'
'younger_'
'undertake_'
'strongest_'
'settle_'
'resistant_'
'nowhere_'
'namely_'
'isn_'
'hundred_'
'houses_'
'freely_'
'express_'
'dire_'
'administrative_'
'M_'
'Irish_'
'Front_'
'Ali_'
'withdraw_'
'tends_'
'straightforward_'
'speculative_'
'recognizes_'
'pledged_'
'obstacle_'
'mood_'
'hot_'
'grave_'
'forests_'
'confronted_'
'character_'
'acquire_'
'Power_'
'Doing_'
'Brothers_'
'worrying_'
'nutrition_'
'ne_'
'integrate_'
'govern_'
'findings_'
'dynamism_'
'bought_'
'Thatcher_'
'Gates_'
'zones_'
'vicious_'
'urbanization_'
'underpinned_'
'threshold_'
'professionals_'
'pledge_'
'interpretation_'
'expansionary_'
'entering_'
'degrees_'
'contraction_'
'concentration_'
'clinical_'
'channel_'
'cap_'
'Sub_'
'Prize_'
'uranium_'
'sm_'
'reporting_'
'protesters_'
'outbreak_'
'minimize_'
'liberty_'
'intentions_'
'honor_'
'friend_'
'fish_'
'favored_'
'emphasize_'
'complexity_'
'altogether_'
'Oil_'
'O_'
'Next_'
'Mahmoud_'
'Labor_'
'troubled_'
'trip_'
'settlements_'
'revolutions_'
'remote_'
'parallel_'
'initiated_'
'destabilizing_'
'describe_'
'crop_'
'bid_'
'SOEs_'
'Richard_'
'Otherwise_'
'Governor_'
'Austria_'
'zing_'
'temperatures_'
'tariff_'
'successes_'
'returning_'
'meantime_'
'intention_'
'implied_'
'holdings_'
'enjoyed_'
'diplomats_'
'assumptions_'
'alive_'
'acknowledged_'
'800_'
'temperature_'
'specifically_'
'revival_'
'providers_'
'pride_'
'margin_'
'losers_'
'livelihoods_'
'interesting_'
'innocent_'
'infectious_'
'frequent_'
'fired_'
'exploit_'
'emotional_'
'electric_'
'defending_'
'cultures_'
'charged_'
'camps_'
'arrested_'
'antibiotics_'
'affects_'
'advocate_'
'PRINCETON_'
'Non_'
'Market_'
'Mario_'
'Economy_'
'Draghi_'
'surface_'
'stuck_'
'safer_'
'quest_'
'prisoners_'
'predecessor_'
'meltdown_'
'lift_'
'investigation_'
'induced_'
'globalized_'
'extremist_'
'defeated_'
'breakthrough_'
'article_'
'adults_'
'absorb_'
'Rouhani_'
'Lisbon_'
'Following_'
'veto_'
'unexpected_'
'transatlantic_'
'terrible_'
'roots_'
'richest_'
'resilient_'
'reflecting_'
'proof_'
'exacerbated_'
'earthquake_'
'consideration_'
'coherent_'
'bloc_'
'bet_'
'artificial_'
'ambition_'
'alleged_'
'advisers_'
'writing_'
'site_'
'restored_'
'rebuild_'
'predecessors_'
'player_'
'officially_'
'newspapers_'
'medicines_'
'landscape_'
'islands_'
'immense_'
'governor_'
'existential_'
'decent_'
'concessions_'
'checks_'
'blamed_'
'attend_'
'assuming_'
'Day_'
'DELHI_'
'Czech_'
'Crisis_'
'train_'
'tourism_'
'socially_'
'soared_'
'seize_'
'polio_'
'persist_'
'officers_'
'laid_'
'harsh_'
'founding_'
'enduring_'
'captured_'
'capitalist_'
'bargaining_'
'allocation_'
'accumulation_'
'accounted_'
'Hu_'
'God_'
'Francis_'
'Association_'
'waves_'
'visited_'
'tribal_'
'stabilizing_'
'split_'
'perform_'
'multinational_'
'indicates_'
'images_'
'generals_'
'forecasts_'
'ceiling_'
'Whereas_'
'Morocco_'
'Friedman_'
'Already_'
'Africans_'
'winners_'
'waters_'
'upper_'
'triumph_'
'raw_'
'ratings_'
'precedent_'
'plausible_'
'permit_'
'origin_'
'obtain_'
'mutually_'
'mixed_'
'looming_'
'irrelevant_'
'doubled_'
'devoted_'
'cure_'
'Globalization_'
'widening_'
'town_'
'storm_'
'signals_'
'regain_'
'recorded_'
'preferences_'
'pound_'
'parity_'
'negotiation_'
'magnitude_'
'illness_'
'hospitals_'
'highlights_'
'gross_'
'fulfilling_'
'focuses_'
'cooperative_'
'closing_'
'classic_'
'bridge_'
'arguably_'
'ad_'
'accord_'
'accelerated_'
'Shinzo_'
'School_'
'Rwanda_'
'Roosevelt_'
'Park_'
'Neither_'
'.&#_'
'tiny_'
'stems_'
'speculation_'
'sending_'
'partisan_'
'lacking_'
'highlighted_'
'functions_'
'epidemic_'
'entrenched_'
'deleveraging_'
'deflationary_'
'deemed_'
'broke_'
'Protocol_'
'Peru_'
'Green_'
' ._'
'ying_'
'worries_'
'winner_'
'western_'
'suggesting_'
'serves_'
'rivals_'
'responding_'
'patent_'
'fraction_'
'flaws_'
'fishing_'
'exclusively_'
'convincing_'
'contained_'
'completed_'
'cohesion_'
'Ultimately_'
'Twitter_'
'Ronald_'
'Making_'
'.&_'
'solely_'
'shrinking_'
'occurring_'
'median_'
'lawyers_'
'feared_'
'expert_'
'enlargement_'
'distinct_'
'contagion_'
'check_'
'bureaucratic_'
'availability_'
'arrest_'
'anemic_'
'Doha_'
'Crimea_'
'B_'
'Above_'
'2018_'
'wife_'
'voluntary_'
'virtual_'
'temporarily_'
'suit_'
'steel_'
'respected_'
'representation_'
'overwhelmingly_'
'obligation_'
'nets_'
'neighborhood_'
'hike_'
'constantly_'
'college_'
'collateral_'
'buildings_'
'bias_'
'admit_'
'Within_'
'Square_'
'Nicolas_'
'Krugman_'
'James_'
'Economics_'
'Apple_'
'Abenomics_'
'shut_'
'scarce_'
'sake_'
'regulate_'
'proud_'
'night_'
'forest_'
'fold_'
'expectancy_'
'eventual_'
'entails_'
'diminished_'
'courage_'
'cold_'
'civilization_'
'blind_'
'biology_'
'ar_'
'Sri_'
'NPT_'
'MADRID_'
'History_'
'Fourth_'
'AKP_'
'unacceptable_'
'trajectory_'
'tolerance_'
'soil_'
'philosophy_'
'pays_'
'odds_'
'ments_'
'letter_'
'indebted_'
'headlines_'
'frustration_'
'football_'
'engaging_'
'director_'
'consent_'
'confirmed_'
'carrying_'
'appealing_'
'aggression_'
'SDR_'
'League_'
'BERLIN_'
'whereby_'
'transmission_'
'toll_'
'tested_'
'teams_'
'securing_'
'preparing_'
'mothers_'
'legally_'
'hegemony_'
'forever_'
'excessively_'
'ex_'
'disruption_'
'devices_'
'detailed_'
'deposit_'
'aircraft_'
'aged_'
'Valley_'
'Ocean_'
'Kerry_'
'Does_'
'Conservative_'
'600_'
'250_'
'voices_'
'violations_'
'um_'
'tasks_'
'starts_'
'stakeholders_'
'spreading_'
'spiral_'
'rebels_'
'poll_'
'orderly_'
'ministry_'
'landing_'
'harmful_'
'gene_'
'firmly_'
'fashion_'
'engineers_'
'display_'
'disintegration_'
'deployed_'
'demonstrations_'
'attacked_'
'answers_'
'agents_'
'Food_'
'Article_'
'yang_'
'victim_'
'unified_'
'strict_'
'shortcomings_'
'reinforcing_'
'regulated_'
'psychological_'
'privatization_'
'instrument_'
'ia_'
'foreseeable_'
'denominated_'
'demise_'
'bust_'
'bargain_'
'b_'
'association_'
'arrived_'
'architecture_'
'Fiscal_'
'Algeria_'
'1993_'
' (“_'
'thousand_'
'shortfall_'
'sees_'
'roles_'
'malaise_'
'impede_'
'gases_'
'forget_'
'entities_'
'ent_'
'elderly_'
'derivatives_'
'compensate_'
'applies_'
'angry_'
'Tony_'
'Recession_'
'Lee_'
'François_'
'Economists_'
'Constitutional_'
'1930s_'
'…_'
'tomorrow_'
'struggles_'
'purely_'
'precise_'
'les_'
'intent_'
'immigrant_'
'grows_'
'frameworks_'
'discourse_'
'deepen_'
'biodiversity_'
'aspect_'
'WWII_'
'U_'
'Pen_'
'stemming_'
'portfolio_'
'maximize_'
'ls_'
'liability_'
'industrialization_'
'gun_'
'evolved_'
'enrichment_'
'draft_'
'declare_'
'assault_'
'accepting_'
'Web_'
'Simply_'
'Catholic_'
'CCP_'
'tight_'
'suspicion_'
'seat_'
'reconstruction_'
'promotion_'
'interference_'
'indispensable_'
'il_'
'honest_'
'filled_'
'excluded_'
'equipped_'
'entitled_'
'dysfunctional_'
'distributed_'
'distinction_'
'destroying_'
'cycles_'
'consolidate_'
'choosing_'
'blocked_'
'beliefs_'
'Time_'
'Koreans_'
'Iraqis_'
'Empire_'
'Bolivia_'
'”) _'
'vacuum_'
'ton_'
'tied_'
'symptoms_'
'sit_'
'redistribution_'
'ought_'
'monitor_'
'missed_'
'intellectuals_'
'drove_'
'discovery_'
'damaged_'
'barrel_'
'bailouts_'
'anticipated_'
'Vice_'
'Do_'
'Cambodia_'
'  _'
'vested_'
'units_'
'temptation_'
'surprised_'
'sphere_'
'safeguard_'
'requirement_'
'prevailed_'
'offensive_'
'notable_'
'maritime_'
'hostility_'
'financially_'
'distinguish_'
'connection_'
'condemned_'
'compliance_'
'chairman_'
'carries_'
'bloody_'
'benefiting_'
'Sharon_'
'Islands_'
'Initiative_'
'Brown_'
'Bosnia_'
'1996_'
'unknown_'
'tempted_'
'storage_'
'promoted_'
'profile_'
'orders_'
'opposing_'
'occurs_'
'novel_'
'named_'
'midst_'
'justification_'
'insurgency_'
'insisted_'
'infections_'
'ice_'
'guidance_'
'factories_'
'exporting_'
'ecosystems_'
'drought_'
'drivers_'
'downside_'
'distance_'
'disruptive_'
'democratically_'
'delayed_'
'commission_'
'behave_'
'application_'
'accident_'
'Thaksin_'
'Sino_'
'Program_'
'Lebanese_'
'Few_'
'Churchill_'
'Brazilian_'
'undermines_'
'stabilization_'
'scenarios_'
'scandal_'
'reveal_'
'recovered_'
'reasonably_'
'racial_'
'professor_'
'premium_'
'pipeline_'
'oversight_'
'method_'
'ian_'
'forgotten_'
'efficiently_'
'demonstrates_'
'commentators_'
'collection_'
'characteristics_'
'biological_'
'assumes_'
'amid_'
'PBOC_'
'NGOs_'
'Far_'
'Chief_'
'1967_'
'uphold_'
'tragic_'
'traditions_'
'traders_'
'tide_'
'spoke_'
'reward_'
'reversal_'
'qualified_'
'punishment_'
'printing_'
'prevail_'
'polarization_'
'minimal_'
'logical_'
'illiberal_'
'hospital_'
'fairness_'
'exceeds_'
'exacerbate_'
'diagnosis_'
'conservatives_'
'censorship_'
'Tibet_'
'Community_'
'Charles_'
'Cairo_'
'BRUSSELS_'
'warfare_'
'torture_'
'superpower_'
'soaring_'
'recommendations_'
'prone_'
'pick_'
'passing_'
'militants_'
'merit_'
'manufacturers_'
'located_'
'ingly_'
'inequalities_'
'grasp_'
'ge_'
'endorsed_'
'discontent_'
'diminishing_'
'defining_'
'consume_'
'calm_'
'ample_'
'advancing_'
'Senator_'
'Freedom_'
'Consensus_'
'Add_'
'," _'
'unpredictable_'
'unpopular_'
'unclear_'
'tremendous_'
'translate_'
'super_'
'profitable_'
'pan_'
'liberals_'
'irresponsible_'
'imported_'
'haven_'
'guard_'
'dying_'
'drawing_'
'depressed_'
'degradation_'
'constitutes_'
'comparative_'
'childhood_'
'basket_'
'attracted_'
'acted_'
'acquired_'
'Greeks_'
'traffic_'
'timing_'
'taught_'
'sustaining_'
'sts_'
'sports_'
'sacrifice_'
'resentment_'
'reference_'
'recessions_'
'reading_'
'predictions_'
'phones_'
'lender_'
'hire_'
'fighters_'
'embedded_'
'dozen_'
'disarmament_'
'dimension_'
'dan_'
'countless_'
'controlling_'
'confined_'
'bearing_'
'approaching_'
'Together_'
'Sunnis_'
'Sometimes_'
'Lanka_'
'Juncker_'
'Christians_'
'Arafat_'
'recall_'
'paradox_'
'operational_'
'miles_'
'loyalty_'
'lands_'
'kilometers_'
'impression_'
'forge_'
'fastest_'
'error_'
'erosion_'
'debtor_'
'connections_'
'burning_'
'bombing_'
'ballot_'
'bail_'
'applications_'
'accumulated_'
'absent_'
'Strategy_'
'Science_'
'Long_'
'Kennedy_'
'Her_'
'Frank_'
'Cup_'
'Ban_'
'—_'
'wins_'
'warnings_'
'venture_'
'undertaken_'
'techniques_'
'superior_'
'succession_'
'solving_'
'semi_'
'secretary_'
'restraint_'
'rein_'
'rally_'
'pool_'
'issuing_'
'inputs_'
'immune_'
'gathering_'
'facility_'
'exclusive_'
'dismissed_'
'bureaucrats_'
'accordingly_'
'Report_'
'Reform_'
'Iranians_'
'Gordon_'
'Davos_'
'suffers_'
'subjects_'
'square_'
'socialist_'
'silence_'
'sanitation_'
'rises_'
'request_'
'records_'
'pact_'
'norm_'
'misleading_'
'infected_'
'genuinely_'
'extending_'
'expectation_'
'disparities_'
'diminish_'
'diabetes_'
'deliberately_'
'debtors_'
'crude_'
'conservation_'
'automatic_'
'authors_'
'adequately_'
'TOKYO_'
'Pact_'
'Congressional_'
'29_'
' ‘_'
' – _'
'villages_'
'village_'
'thrive_'
'reckless_'
'ranking_'
'protections_'
'knowing_'
'factory_'
'distress_'
'departure_'
'denial_'
'ch_'
'bulk_'
'boosted_'
'bondholders_'
'bin_'
'Peninsula_'
'Infrastructure_'
'Finland_'
'”: _'
'watching_'
'transnational_'
'suspect_'
'sole_'
'scrutiny_'
'representing_'
'relied_'
'province_'
'privacy_'
'partial_'
'normally_'
'minor_'
'locked_'
'f_'
'entity_'
'dozens_'
'differ_'
'covered_'
'comprise_'
'adaptation_'
'Sanders_'
'Roma_'
'Director_'
'85_'
' _'
'window_'
'transforming_'
'symbol_'
'reconcile_'
'premature_'
'placing_'
'performed_'
'negotiators_'
'myriad_'
'imbalance_'
'hidden_'
'handed_'
'guidelines_'
'exceptions_'
'ethics_'
'enthusiasm_'
'eat_'
'determining_'
'crowd_'
'coastal_'
'burst_'
'boundaries_'
'automatically_'
'FDI_'
'Emerging_'
'Developing_'
'Declaration_'
'Belgium_'
'Again_'
'1973_'
'welcomed_'
'vary_'
'substitute_'
'strain_'
'stick_'
'stark_'
'stagnant_'
'spurred_'
'shot_'
'ship_'
'routine_'
'remarkably_'
'preserving_'
'ist_'
'irrational_'
'invited_'
'illusion_'
'identities_'
'graduates_'
'freedoms_'
'fraud_'
'facilitating_'
'engines_'
'drag_'
'deterrence_'
'deregulation_'
'deployment_'
'comfortable_'
'burdens_'
'behalf_'
'allocated_'
'alarming_'
'actor_'
'Throughout_'
'Corporation_'
'stations_'
'spectrum_'
'savers_'
'repay_'
'reminder_'
'reforming_'
'protracted_'
'projections_'
'presumably_'
'postwar_'
'ordered_'
'object_'
'marks_'
'inherited_'
'east_'
'defaults_'
'da_'
'combine_'
'budgetary_'
'brand_'
'ations_'
'Saudis_'
'San_'
'Olympic_'
'Kazakhstan_'
'Geneva_'
'Charter_'
'Banks_'
'Almost_'
'zed_'
'unnecessary_'
'subsequently_'
'scholars_'
'portion_'
'personnel_'
'overnight_'
'notes_'
'neglect_'
'lately_'
'indigenous_'
'inaction_'
'ignoring_'
'hide_'
'hatred_'
'grant_'
'extension_'
'emerges_'
'dubious_'
'distortions_'
'decisively_'
'deadly_'
'collectively_'
'citizenship_'
'card_'
'Zimbabwe_'
'Swiss_'
'Special_'
'Silicon_'
'Poor_'
'Policymakers_'
'Microsoft_'
'Medvedev_'
'Markets_'
'Liberal_'
'700_'
'witnessed_'
'whenever_'
'unusual_'
'triggering_'
'tes_'
'symbolic_'
'statistical_'
'spectacular_'
'sounds_'
'reportedly_'
'removing_'
'producer_'
'packages_'
'mining_'
'inherent_'
'feelings_'
'farming_'
'equitable_'
'environmentally_'
'encourages_'
'discourage_'
'deter_'
'conviction_'
'containment_'
'capability_'
'box_'
'audience_'
'array_'
'aggressively_'
'Too_'
'Singh_'
'Right_'
'Nothing_'
'Michael_'
'HAVEN_'
'Either_'
'Chirac_'
'Age_'
'AIIB_'
'unite_'
'traded_'
'theories_'
'spreads_'
'separation_'
'se_'
'sale_'
'revised_'
'poised_'
'naval_'
'migrant_'
'macro_'
'liquid_'
'ive_'
'interim_'
'ings_'
'incomplete_'
'ful_'
'formula_'
'formation_'
'formally_'
'experiments_'
'exchanges_'
'errors_'
'criminals_'
'coast_'
'clash_'
'cautious_'
'benign_'
'benchmark_'
'accomplished_'
'Future_'
'ze_'
'ya_'
'repeat_'
'physics_'
'phrase_'
'outflows_'
'luxury_'
'lifted_'
'influenced_'
'impoverished_'
'hikes_'
'hence_'
'habits_'
'factions_'
'excuse_'
'examine_'
'entail_'
'democratization_'
'creativity_'
'contains_'
'cognitive_'
'calculations_'
'approximately_'
'Yeltsin_'
'Obviously_'
'News_'
'Capital_'
'topic_'
'surveys_'
'silent_'
'seekers_'
'scientist_'
'reflection_'
'recommended_'
'proxy_'
'proceed_'
'piece_'
'peripheral_'
'nce_'
'misguided_'
'meanwhile_'
'launching_'
'keeps_'
'indicator_'
'exclusion_'
'evolutionary_'
'electronic_'
'ds_'
'distrust_'
'disproportionate_'
'dictator_'
'depending_'
'contest_'
'composition_'
'cards_'
'brief_'
'borrowed_'
'banned_'
'alter_'
'Pope_'
'McKinsey_'
'Joseph_'
'Holocaust_'
'Four_'
'Egyptians_'
'Debt_'
'CIA_'
'BEIJING_'
'ter_'
'tells_'
'solved_'
'seized_'
'robots_'
'replacing_'
'receives_'
'rationale_'
'proclaimed_'
'probability_'
'peer_'
'participating_'
'page_'
'nobody_'
'meat_'
'likes_'
'la_'
'horizon_'
'holders_'
'hiring_'
'highlight_'
'frustrated_'
'formidable_'
'flood_'
'fees_'
'commerce_'
'clients_'
'cited_'
'brink_'
'bitter_'
'Representatives_'
'Church_'
'Abu_'
'vibrant_'
'urgency_'
'unification_'
'tanks_'
'skeptical_'
'routinely_'
'rice_'
'profitability_'
'overly_'
'originally_'
'incumbent_'
'frontier_'
'disruptions_'
'daunting_'
'champion_'
'bases_'
'assessing_'
'amounted_'
'Through_'
'Summers_'
'Sachs_'
'Round_'
'Red_'
'Franco_'
'Former_'
'understands_'
'store_'
'spends_'
'skepticism_'
'reveals_'
'retreat_'
'repair_'
'pretty_'
'possibilities_'
'permanently_'
'paralysis_'
'occasion_'
'obesity_'
'normalization_'
'miss_'
'memories_'
'liberalism_'
'keen_'
'iron_'
'imminent_'
'handle_'
'foods_'
'flat_'
'entrepreneurship_'
'ding_'
'customs_'
'closest_'
'borne_'
'arbitrary_'
'abandoning_'
'Would_'
'WHO_'
'Viktor_'
'Tokyo_'
'System_'
'Puerto_'
'Premier_'
'Nazis_'
'Movement_'
'Ironically_'
'Index_'
'thinks_'
'tactical_'
'suppliers_'
'settled_'
'seeds_'
'satisfy_'
'revived_'
'resisted_'
'profession_'
'pressed_'
'permitted_'
'names_'
'militias_'
'intensified_'
'industrialized_'
'id_'
'guided_'
'grim_'
'dividends_'
'depth_'
'cy_'
'curb_'
'continental_'
'coalitions_'
'centralized_'
'attracting_'
'assert_'
'appetite_'
'Wen_'
'NAFTA_'
'Leader_'
'H_'
'Chen_'
'Better_'
'v_'
'treating_'
'towns_'
'ships_'
'scene_'
'roll_'
'rebel_'
'ra_'
'psychology_'
'provinces_'
'pivot_'
'pervasive_'
'paradigm_'
'overthrow_'
'outstanding_'
'outsiders_'
'nationalists_'
'massacre_'
'marginalized_'
'luck_'
'introducing_'
'inspire_'
'inflicted_'
'heading_'
'grievances_'
'grants_'
'gotten_'
'fragmented_'
'fragmentation_'
'founder_'
'favorite_'
'ecosystem_'
'dangerously_'
'conclusions_'
'breakdown_'
'blocking_'
'autonomous_'
'attributed_'
'Thanks_'
'Marshall_'
'Li_'
'D'
'Basel_'
'Australian_'
'55_'
'31_'
'120_'
' –_'
'worsening_'
'teach_'
'rewards_'
'restricted_'
'reluctance_'
'radically_'
'parliaments_'
'notice_'
'nomination_'
'municipal_'
'literally_'
'insights_'
'impunity_'
'imagined_'
'feels_'
'favors_'
'exceptional_'
'empirical_'
'collect_'
'cliff_'
'blue_'
'averaged_'
'advocated_'
'Similar_'
'Royal_'
'Romania_'
'OPEC_'
'MDGs_'
'Henry_'
'Good_'
'Delhi_'
'Civil_'
'Chair_'
'38_'
'36_'
'., _'
'wary_'
'unilaterally_'
'transaction_'
'tone_'
'stalled_'
'stages_'
'sheer_'
'secured_'
'scheduled_'
'restrict_'
'propose_'
'practically_'
'mess_'
'malnutrition_'
'listen_'
'hate_'
'fluctuations_'
'extends_'
'episode_'
'empty_'
'empowered_'
'ecological_'
'documented_'
'discredited_'
'compare_'
'centered_'
'ary_'
'Tax_'
'Had_'
'Games_'
'El_'
'Companies_'
'Balkans_'
'Abdullah_'
'37_'
'34_'
' –&#_'
'x_'
'tions_'
'subsidy_'
'strange_'
'perceptions_'
'manufactured_'
'lifetime_'
'intensity_'
'indication_'
'indicated_'
'games_'
'enforced_'
'disturbing_'
'certainty_'
'avert_'
'agendas_'
'Yanukovych_'
'Twenty_'
'Thomas_'
'Southern_'
'Mohamed_'
'Military_'
'39_'
'smoking_'
'respective_'
'removal_'
'reactions_'
'opponent_'
'neutral_'
'morality_'
'mindset_'
'loose_'
'lacked_'
'invariably_'
'interconnected_'
'incapable_'
'grip_'
'gather_'
'explosion_'
'essence_'
'droughts_'
'deterioration_'
'deserves_'
'deliberate_'
'coordinate_'
'considers_'
'buyers_'
'autocratic_'
'arsenal_'
'Yugoslavia_'
'Mali_'
'G20_'
'2025_'
'.” _'
'.  _'
'worsen_'
'transitions_'
'tolerate_'
'slump_'
'slogan_'
'sitting_'
'refusing_'
'reasoning_'
'pure_'
'motivation_'
'mega_'
'll_'
'insight_'
'handful_'
'evolving_'
'denying_'
'concerted_'
'ages_'
'adviser_'
'admitted_'
'activist_'
'Tayyip_'
'Swedish_'
'Socialist_'
'Rome_'
'Recep_'
'Recently_'
'Maynard_'
'Laden_'
'Everyone_'
'Darfur_'
'· _'
'vastly_'
'ups_'
'unleashed_'
'ta_'
'stressed_'
'sponsored_'
'satellite_'
'rests_'
'readily_'
'rage_'
'prize_'
'origins_'
'optimal_'
'location_'
'lifting_'
'interaction_'
'helpful_'
'gasoline_'
'futures_'
'fault_'
'embracing_'
'doubling_'
'disappear_'
'despair_'
'decrease_'
'counterproductive_'
'complacency_'
'beings_'
'accomplish_'
'Rio_'
'Politics_'
'L_'
'Haiti_'
'Gandhi_'
'Dodd_'
'Baghdad_'
'33_'
'zation_'
'undergoing_'
'trafficking_'
'therapy_'
'tangible_'
'speeches_'
'rethink_'
'replacement_'
'remittances_'
'recipe_'
'postpone_'
'pillar_'
'overcoming_'
'ning_'
'monthly_'
'mired_'
'letting_'
'ignorance_'
'genome_'
'equities_'
'episodes_'
'endless_'
'combating_'
'clout_'
'adult_'
'accessible_'
'Sinai_'
'Post_'
'Leave_'
'Inflation_'
'Gazprom_'
'Annan_'
'wild_'
'trapped_'
'tougher_'
'text_'
'smooth_'
'renewables_'
'react_'
'rampant_'
'induce_'
'indirect_'
'euros_'
'duties_'
'document_'
'disappeared_'
'disagree_'
'defensive_'
'declaring_'
'corner_'
'construct_'
'breakthroughs_'
'bombs_'
'believing_'
'beat_'
'automation_'
'atrocities_'
'arm_'
'appearance_'
'allegedly_'
'advertising_'
'Xiaoping_'
'Private_'
'Ghana_'
'Don_'
'Asians_'
'Anglo_'
'Action_'
'AMR_'
' &#_'
'withstand_'
'underground_'
'underestimated_'
'tenure_'
'soccer_'
'shrink_'
'safeguards_'
'pundits_'
'processing_'
'perfectly_'
'outrage_'
'neglected_'
'music_'
'multilateralism_'
'longstanding_'
'items_'
'intensify_'
'generates_'
'flowing_'
'disappointing_'
'dictators_'
'commonly_'
'ceasefire_'
'category_'
'cal_'
'bipartisan_'
'Uganda_'
'Specifically_'
'Revolutionary_'
'Johnson_'
'Calderón_'
'Ayatollah_'
'32_'
'1981_'
'technocratic_'
'systematic_'
'sums_'
'resolutions_'
'ratified_'
'punish_'
'prompted_'
'outlets_'
'os_'
'maintains_'
'invented_'
'insisting_'
'forth_'
'est_'
'emotions_'
'emission_'
'drone_'
'domestically_'
'deploy_'
'demonstrating_'
'dedicated_'
'comprising_'
'baby_'
'ating_'
'assassination_'
'academics_'
'Panel_'
'Old_'
'McCain_'
'Bo_'
'vulnerabilities_'
'vehicle_'
'urge_'
'triple_'
'tic_'
'thin_'
'teaching_'
'sport_'
'schooling_'
'referred_'
'quiet_'
'plight_'
'ping_'
'obliged_'
'na_'
'militarily_'
'micro_'
'marine_'
'lethal_'
'ke_'
'inward_'
'interdependence_'
'initiate_'
'indefinitely_'
'ideals_'
'hoping_'
'heightened_'
'floods_'
'facilitated_'
'excesses_'
'erode_'
'elimination_'
'disputed_'
'deputy_'
'credits_'
'civic_'
'beneficiaries_'
'bed_'
'assist_'
'assembly_'
'arrive_'
'addresses_'
'Zealand_'
'Rico_'
'Project_'
'Oslo_'
'Maastricht_'
'Jacques_'
'Fukushima_'
'Forces_'
'Exchange_'
'Affairs_'
'é_'
'west_'
'wasted_'
'ves_'
'upgrading_'
'suited_'
'studied_'
'struggled_'
'sentiments_'
'rigid_'
'quotas_'
'prudent_'
'proposing_'
'preventive_'
'ports_'
'offices_'
'necessity_'
'moon_'
'mistrust_'
'miracle_'
'mentioned_'
'ine_'
'hungry_'
'historian_'
'freeze_'
'exemplified_'
'eroded_'
'devise_'
'daughter_'
'conversation_'
'controversy_'
'cease_'
'booming_'
'Venezuelan_'
'Smith_'
'Ministry_'
'Marine_'
'Hindu_'
'Gaulle_'
'DPJ_'
'Cuban_'
'Arctic_'
'95_'
'1960s_'
'winter_'
'voter_'
'universe_'
'uncertainties_'
'spot_'
'selected_'
'revelations_'
'residential_'
'rent_'
'quantity_'
'privileged_'
'pillars_'
'overlooked_'
'organize_'
'offshore_'
'masses_'
'marketing_'
'mainland_'
'ists_'
'inherently_'
'height_'
'exploitation_'
'existed_'
'eradication_'
'diversification_'
'disrupt_'
'deciding_'
'compact_'
'ck_'
'breast_'
'behavioral_'
'author_'
'ate_'
'assessments_'
'arises_'
'abundant_'
'Martin_'
'Mark_'
'Lula_'
'Alan_'
'unlimited_'
'trusted_'
'troika_'
'survived_'
'substance_'
'statehood_'
'season_'
'ps_'
'prudential_'
'prevents_'
'possess_'
'narratives_'
'motives_'
'ministries_'
'mandatory_'
'lobbying_'
'linking_'
'leveraged_'
'infection_'
'implication_'
'hazard_'
'guilty_'
'fronts_'
'forefront_'
'fires_'
'exploited_'
'enlightened_'
'emulate_'
'drives_'
'disposal_'
'dismiss_'
'di_'
'deforestation_'
'crackdown_'
'covering_'
'continuous_'
'concentrate_'
'booms_'
'ated_'
'applying_'
'ans_'
'adhere_'
'Open_'
'Franklin_'
'Care_'
'Banking_'
'1982_'
'walk_'
'video_'
'vague_'
'unequal_'
'swap_'
'suppress_'
'staggering_'
'ss_'
'remind_'
'relevance_'
'ranked_'
'potent_'
'oceans_'
'minutes_'
'literacy_'
'liberties_'
'humiliation_'
'expects_'
'escalation_'
'empower_'
'emphasizes_'
'durable_'
'documents_'
'digit_'
'coupled_'
'contact_'
'communicate_'
'breakup_'
'bar_'
'appeals_'
'Thai_'
'Tea_'
'Part_'
'Medicare_'
'Investors_'
'IPCC_'
'Eurobonds_'
'Earlier_'
'Could_'
'Claude_'
'Belarus_'
'web_'
'urged_'
'sweeping_'
'strengths_'
'strains_'
'somewhere_'
'socialism_'
'sluggish_'
'signaled_'
'scores_'
'revolt_'
'plummeted_'
'philosopher_'
'maintenance_'
'limitations_'
'intensifying_'
'instance_'
'insistence_'
'incremental_'
'heed_'
'forum_'
'fed_'
'expose_'
'excellent_'
'everybody_'
'entrepreneurial_'
'employ_'
'dissent_'
'deteriorating_'
'dealt_'
'counterpart_'
'containing_'
'confirm_'
'club_'
'circles_'
'chair_'
'breaks_'
'battles_'
'ambassador_'
'activism_'
'accommodate_'
'Syriza_'
'Nepal_'
'Mumbai_'
'Goldman_'
'Christmas_'
'Children_'
'Budget_'
'+_'
'worthy_'
'wishes_'
'violation_'
'unresolved_'
'unintended_'
'underpin_'
'totally_'
'tackling_'
'swing_'
'respects_'
'presents_'
'pockets_'
'native_'
'morally_'
'missions_'
'militant_'
'maybe_'
'indirectly_'
'indifference_'
'ignores_'
'healthier_'
'giants_'
'flooding_'
'fertility_'
'feet_'
'feedback_'
'exercises_'
'exceeded_'
'escalating_'
'endured_'
'cynical_'
'conditional_'
'compromises_'
'boards_'
'bleak_'
'aligned_'
'affair_'
'Vienna_'
'Syrians_'
'Silk_'
'River_'
'Review_'
'Nearly_'
'Money_'
'KGB_'
'Imagine_'
'Hugo_'
'Hosni_'
'Ecuador_'
'Chicago_'
'Caribbean_'
'valid_'
'troubling_'
'theoretical_'
'technocrats_'
'swept_'
'spoken_'
'sick_'
'sh_'
'segments_'
'preference_'
'pointing_'
'opt_'
'nightmare_'
'myth_'
'legislators_'
'killings_'
'injustice_'
'identifying_'
'fostering_'
'floor_'
'fits_'
'examined_'
'enact_'
'drinking_'
'distribute_'
'destiny_'
'destination_'
'correctly_'
'comfort_'
'clearer_'
'clarity_'
'aren_'
'appoint_'
'advised_'
'Ukrainians_'
'Tsipras_'
'Maybe_'
'Manuel_'
'Libyan_'
'Kuwait_'
'Guantánamo_'
'Gorbachev_'
'Celsius_'
'Amazon_'
'42_'
'utterly_'
'traction_'
'suspended_'
'rivers_'
'responsive_'
'reap_'
'reaches_'
'provoke_'
'port_'
'outset_'
'lowered_'
'kan_'
'journey_'
'interview_'
'interact_'
'integral_'
'imagination_'
'gravity_'
'exaggerated_'
'elusive_'
'doors_'
'desired_'
'contributes_'
'contentious_'
'consuming_'
'casualties_'
'branch_'
'bly_'
'belong_'
'bears_'
'bankrupt_'
'authoritarianism_'
'attraction_'
'attacking_'
'align_'
'akin_'
'Texas_'
'Renzi_'
'Proliferation_'
'N_'
'Mikhail_'
'Mandela_'
'Liu_'
'L'
'Hungarian_'
'Castro_'
'Between_'
'Baltic_'
'BJP_'
'throw_'
'telecommunications_'
'surrender_'
'subsidiaries_'
'star_'
'skeptics_'
'scarcity_'
'repeal_'
'rejecting_'
'quasi_'
'provincial_'
'proposes_'
'polar_'
'organic_'
'onset_'
'movie_'
'maximum_'
'margins_'
'maneuver_'
'jump_'
'insolvent_'
'insolvency_'
'immunization_'
'helicopter_'
'dreams_'
'doctor_'
'districts_'
'distorted_'
'counts_'
'consists_'
'connectivity_'
'centrist_'
'celebrate_'
'anyway_'
'anytime_'
'Soon_'
'Reinhart_'
'Moldova_'
'Administration_'
'44_'
'witness_'
'touch_'
'stimulating_'
'stalemate_'
'sky_'
'select_'
'restoration_'
'renewal_'
'reminded_'
'publication_'
'personality_'
'penalty_'
'peacefully_'
'patents_'
'panel_'
'ostensibly_'
'orthodoxy_'
'operates_'
'mitigation_'
'meters_'
'maternal_'
'march_'
'kick_'
'judged_'
'interactions_'
'hardest_'
'fled_'
'firing_'
'fallout_'
'fake_'
'describes_'
'connect_'
'compelled_'
'committing_'
'boys_'
'assured_'
'assertive_'
'anticipate_'
'advocating_'
'accurately_'
'absurd_'
'TTIP_'
'Protection_'
'Politicians_'
'Ottoman_'
'Obamacare_'
'III_'
'1986_'
'°_'
'watched_'
'violated_'
'unrealistic_'
'thinkers_'
'switch_'
'strategically_'
'station_'
'specter_'
'shareholder_'
'salaries_'
'rock_'
'reviving_'
'regulating_'
'regards_'
'reformers_'
'preceded_'
'nominee_'
'moderates_'
'mobilized_'
'lesser_'
'journalist_'
'interpreted_'
'intelligent_'
'grid_'
'grade_'
'geography_'
'fatal_'
'ess_'
'ensures_'
'emphasizing_'
'distressed_'
'disagreements_'
'disagreement_'
'dictatorships_'
'dependency_'
'defeating_'
'customer_'
'contradictory_'
'consumed_'
'concepts_'
'conceived_'
'collected_'
'collapsing_'
'brother_'
'beautiful_'
'axis_'
'Workers_'
'Up_'
'Scottish_'
'Roman_'
'Nowadays_'
'Margaret_'
'Ever_'
'1971_'
'1914_'
'”; _'
'unthinkable_'
'underestimate_'
'troubles_'
'thrown_'
'thriving_'
'strictly_'
'storms_'
'speculators_'
'silver_'
'scandals_'
'rivalry_'
'remembered_'
'recipients_'
'radio_'
'radicals_'
'positioned_'
'overhang_'
'irony_'
'historians_'
'hearts_'
'hearing_'
'forming_'
'evaluate_'
'diagnostic_'
'democrats_'
'correlation_'
'compounded_'
'comments_'
'caution_'
'calculated_'
'appointment_'
'affluent_'
'Zhou_'
'Rogoff_'
'Real_'
'R'
'Monti_'
'GNP_'
'Binyamin_'
'Anti_'
'writer_'
'wherever_'
'uprising_'
'unfortunately_'
'trees_'
'tended_'
'talented_'
'systematically_'
'suspected_'
'sentence_'
'scenes_'
'rush_'
'revealing_'
'reunification_'
'rebound_'
'print_'
'portfolios_'
'plot_'
'persists_'
'passage_'
'organisms_'
'motion_'
'leftist_'
'imperfect_'
'hostage_'
'fly_'
'exhausted_'
'etc_'
'destabilize_'
'cumulative_'
'complementary_'
'compatible_'
'businessmen_'
'broaden_'
'broadband_'
'bility_'
'balancing_'
'appreciated_'
'anchor_'
'accumulate_'
'Yellen_'
'Was_'
'Using_'
'Muammar_'
'Italians_'
'Gülen_'
'Equally_'
'Bundesbank_'
'A'
'43_'
'. “_'
'worrisome_'
'warm_'
'vaccination_'
'timely_'
'tighter_'
'theme_'
'suspicious_'
'sun_'
'river_'
'resigned_'
'repressive_'
'remedy_'
'reacted_'
'rail_'
'pledges_'
'perpetrators_'
'peacekeeping_'
'misery_'
'materialize_'
'ma_'
'loyal_'
'linkages_'
'jurisdiction_'
'impeding_'
'headline_'
'exporter_'
'exceeding_'
'efficacy_'
'dimensions_'
'derived_'
'comprises_'
'competent_'
'ballistic_'
'alcohol_'
'accusations_'
'Young_'
'Water_'
'Society_'
'Rousseff_'
'Regardless_'
'Never_'
'Life_'
'I'
'Force_'
'Deal_'
'BOJ_'
'Across_'
' –&_'
'visits_'
'unwillingness_'
'tries_'
'torn_'
'sugar_'
'spike_'
'rounds_'
'ride_'
'rebuilding_'
'reactors_'
'rapprochement_'
'proposition_'
'profoundly_'
'prestige_'
'prescription_'
'picked_'
'personally_'
'parent_'
'organizational_'
'officer_'
'obtained_'
'obsolete_'
'modified_'
'modernize_'
'lag_'
'jail_'
'ized_'
'internally_'
'influx_'
'incidents_'
'golden_'
'genetically_'
'fundamentalism_'
'fruit_'
'fortune_'
'foot_'
'explosive_'
'explanations_'
'executed_'
'evolve_'
'evasion_'
'ensuing_'
'earning_'
'drama_'
'disproportionately_'
'des_'
'complained_'
'channeled_'
'careers_'
'accustomed_'
'Orbán_'
'Olympics_'
'Managing_'
'J_'
'wasn_'
'virtue_'
'violate_'
'unleash_'
'undertaking_'
'swaps_'
'surrounded_'
'structured_'
'stepped_'
'speaks_'
'sciences_'
'satisfied_'
'safely_'
'restructure_'
'restricting_'
'ratify_'
'populated_'
'permits_'
'perceive_'
'owe_'
'outsourcing_'
'opinions_'
'minute_'
'lest_'
'flag_'
'execution_'
'enormously_'
'employer_'
'doomed_'
'detail_'
'denounced_'
'constraint_'
'constituencies_'
'consecutive_'
'conferences_'
'competence_'
'cement_'
'associations_'
'analogy_'
'alarm_'
'Solidarity_'
'Low_'
'Left_'
'Independence_'
'IT_'
'Florida_'
'Contrary_'
'Caucasus_'
'Around_'
'Anyone_'
'48_'
' ¥_'
'woes_'
'witnessing_'
'viewing_'
'varying_'
'traits_'
'tighten_'
'successive_'
'specialized_'
'signing_'
'shame_'
'reversing_'
'resume_'
'relentless_'
'recipient_'
'realism_'
'pragmatism_'
'postponed_'
'pipelines_'
'pessimism_'
'passive_'
'overhaul_'
'ory_'
'nurture_'
'mitigating_'
'master_'
'identical_'
'husband_'
'hero_'
'ging_'
'ges_'
'gathered_'
'forthcoming_'
'forecasting_'
'fleeing_'
'environments_'
'employee_'
'ely_'
'dry_'
'drops_'
'devote_'
'description_'
'compel_'
'capacities_'
'bridges_'
'bonuses_'
'belt_'
'backward_'
'anxious_'
'ance_'
'allegations_'
'adds_'
'adapted_'
'Volcker_'
'Turks_'
'Services_'
'Peter_'
'Leaders_'
'Iceland_'
'EMU_'
'CEOs_'
'Air_'
'AI_'
'”)._'
'wouldn_'
'symptom_'
'subsidized_'
'stream_'
'stopping_'
'skin_'
'shouldn_'
'radiation_'
'quietly_'
'quantities_'
'proceeds_'
'opted_'
'occasionally_'
'navigate_'
'mature_'
'manipulate_'
'liberation_'
'irreversible_'
'insurgents_'
'inner_'
'impending_'
'headquarters_'
'handled_'
'gs_'
'greed_'
'farms_'
'eradicate_'
'dual_'
'displacement_'
'disorders_'
'detention_'
'defenses_'
'decentralized_'
'confusion_'
'busy_'
'bright_'
'arrival_'
'afraid_'
'Unemployment_'
'Service_'
'S'
'Poverty_'
'Osama_'
'Madrid_'
'Canadian_'
'Black_'
'47_'
',” “_'
'understandably_'
'transitional_'
'transferred_'
'title_'
'studying_'
'seas_'
'satisfaction_'
'resemble_'
'repercussions_'
'refuses_'
'promotes_'
'procurement_'
'plagued_'
'picking_'
'persecution_'
'owed_'
'mistaken_'
'merits_'
'maturity_'
'languages_'
'ka_'
'incurred_'
'impasse_'
'illnesses_'
'hip_'
'herself_'
'guiding_'
'globe_'
'finished_'
'explaining_'
'dubbed_'
'drew_'
'discussing_'
'discover_'
'discount_'
'detect_'
'debated_'
'crunch_'
'criticize_'
'correction_'
'conflicting_'
'comply_'
'burned_'
'blueprint_'
'avoidance_'
'announce_'
'Self_'
'Sadly_'
'P'
'O'
'Milton_'
'Kissinger_'
'BoE_'
'Bay_'
'1929_'
', $_'
'yielding_'
'varieties_'
'unfortunate_'
'unavoidable_'
'sympathy_'
'steep_'
'standoff_'
'shed_'
'render_'
'recommend_'
'rebellion_'
'rebalance_'
'reassuring_'
'realizing_'
'privately_'
'pluralism_'
'plunged_'
'payroll_'
'organizing_'
'multiplier_'
'markedly_'
'manageable_'
'locations_'
'inspiration_'
'ins_'
'indebtedness_'
'hub_'
'headwinds_'
'flying_'
'fierce_'
'extraction_'
'excluding_'
'exclude_'
'entitlement_'
'enshrined_'
'empowerment_'
'embassy_'
'embargo_'
'downs_'
'dose_'
'decides_'
'conspiracy_'
'complaints_'
'classical_'
'clashes_'
'cite_'
'barrier_'
'approve_'
'apparatus_'
'allocate_'
'agreeing_'
'Shi_'
'SMEs_'
'Per'
'Overall_'
'Historically_'
'Hence_'
'G'
'Failure_'
'FSB_'
'FARC_'
'Eurozone_'
'Cultural_'
'Communism_'
'Certainly_'
'Building_'
'1933_'
'&#_'
'”), _'
'visiting_'
'verge_'
'vely_'
'valued_'
'trillions_'
'systemically_'
'surpassed_'
'succeeds_'
'spurring_'
'shocking_'
'ruler_'
'readers_'
'rank_'
'prohibited_'
'proceedings_'
'privilege_'
'prevails_'
'paralyzed_'
'pages_'
'outsize_'
'oppression_'
'oldest_'
'nearby_'
'modernity_'
'moderation_'
'mine_'
'messages_'
'measuring_'
'lying_'
'irrigation_'
'inclined_'
'incident_'
'homeowners_'
'highlighting_'
'geographic_'
'gay_'
'fundamentalists_'
'extraordinarily_'
'exploration_'
'exile_'
'exceptionally_'
'enjoys_'
'educate_'
'depositors_'
'demonstrators_'
'courses_'
'composed_'
'ces_'
'categories_'
'boon_'
'bio_'
'backdrop_'
'attended_'
'ant_'
'achievable_'
'T'
'Sierra_'
'Rising_'
'Representative_'
'N'
'Less_'
'Jintao_'
'Jazeera_'
'Fifth_'
'Environmental_'
'Digital_'
'Criminal_'
'Agenda_'
'Adam_'
'About_'
'upside_'
'unhappy_'
'tie_'
'synthetic_'
'subjected_'
'rendered_'
'reformed_'
'realization_'
'radicalism_'
'questioning_'
'proximity_'
'proves_'
'prediction_'
'precious_'
'per'
'patience_'
'particles_'
'owner_'
'offs_'
'notorious_'
'ned_'
'moreover_'
'listed_'
'lifestyle_'
'lasted_'
'intractable_'
'intervening_'
'intervened_'
'intends_'
'insists_'
'inhabitants_'
'horse_'
'havoc_'
'guess_'
'functional_'
'freer_'
'flourish_'
'exploiting_'
'evidently_'
'entertainment_'
'enrollment_'
'dictate_'
'demonstration_'
'ded_'
'crossing_'
'crossed_'
'craft_'
'counted_'
'confused_'
'color_'
'classified_'
'buffer_'
'brave_'
'annexation_'
'ah_'
'admission_'
'absolutely_'
'Sharif_'
'Poles_'
'PiS_'
'Persian_'
'Liberation_'
'Leone_'
'LDP_'
'Interest_'
'H'
'GCC_'
'Framework_'
'End_'
'Critics_'
'Common_'
'99_'
'1968_'
'130_'
'”_'
'warn_'
'w_'
'ur_'
'transit_'
'technically_'
'symbols_'
'surging_'
'suppression_'
'superiority_'
'stunning_'
'stores_'
'sparked_'
'sons_'
'retired_'
'repayment_'
'refrain_'
'rated_'
'questioned_'
'pulled_'
'provoked_'
'posts_'
'owes_'
'outweigh_'
'outlays_'
'newcomers_'
'metaphor_'
'judgments_'
'invisible_'
'invaded_'
'inconsistent_'
'ied_'
'hugely_'
'hosted_'
'horrific_'
'havens_'
'graduate_'
'fulfilled_'
'frequency_'
'exported_'
'everyday_'
'engineer_'
'endemic_'
'drain_'
'domination_'
'dog_'
'dividend_'
'device_'
'deprived_'
'delegation_'
'defended_'
'cosmopolitan_'
'corresponding_'
'consultation_'
'complain_'
'civilizations_'
'capitals_'
'calculation_'
'broker_'
'apartheid_'
'administrations_'
'accidents_'
'Small_'
'Silvio_'
'Olmert_'
'Khrushchev_'
'K_'
'Guard_'
'College_'
'Bhutto_'
'51_'
'!”_'
'unchanged_'
'turnout_'
'tropical_'
'treasury_'
'tenth_'
'tendencies_'
'taxing_'
'tap_'
'supportive_'
'supervisory_'
'submitted_'
'rigorous_'
'registered_'
'reactor_'
'preventable_'
'percent_'
'participated_'
'overdue_'
'moments_'
'ming_'
'loses_'
'literature_'
'leveraging_'
'jeopardize_'
'innovate_'
'incompetence_'
'importing_'
'grassroots_'
'glut_'
'fragility_'
'feat_'
'extremes_'
'ensured_'
'enriched_'
'distinguished_'
'disregard_'
'directors_'
'depended_'
'deficiencies_'
'dam_'
'convention_'
'constructed_'
'conscious_'
'chess_'
'amendment_'
'Wilson_'
'Semitism_'
'Regional_'
'PLO_'
'Kyi_'
'K'
'IAEA_'
'Higher_'
'Executive_'
'Economist_'
'Boris_'
'Armenia_'
'1988_'
'walls_'
'utility_'
'unfolding_'
'undervalued_'
'underscores_'
'trauma_'
'transformative_'
'talents_'
'susceptible_'
'stone_'
'si_'
'sequence_'
'screening_'
'score_'
'sad_'
'resignation_'
'reminiscent_'
'reformist_'
'refer_'
'privileges_'
'prevalence_'
'predicting_'
'persuaded_'
'par_'
'papers_'
'oligarchs_'
'nd_'
'narrowly_'
'majorities_'
'intra_'
'installed_'
'heroic_'
'hegemonic_'
'foolish_'
'floating_'
'fantasy_'
'expressing_'
'exacerbating_'
'enjoying_'
'elevated_'
'duration_'
'divergence_'
'dismal_'
'discretionary_'
'disadvantage_'
'dirty_'
'diet_'
'decreased_'
'crowded_'
'critically_'
'compromised_'
'commander_'
'coffee_'
'clever_'
'clause_'
'ber'
'auto_'
'amounting_'
'adversaries_'
'Warren_'
'Tiananmen_'
'Tehran_'
'Suu_'
'NCDs_'
'Modern_'
'Maduro_'
'M'
'Looking_'
'Large_'
'Jiabao_'
'Istanbul_'
'Guinea_'
'Eventually_'
'Bahrain_'
'Argentine_'
'57_'
'– _'
'ure_'
'undercut_'
'twin_'
'tissue_'
'talked_'
'substantive_'
'steam_'
'soul_'
'slaughter_'
'signatories_'
'shocked_'
'separatist_'
'riots_'
'reinforces_'
'reconsider_'
'quota_'
'qualities_'
'protects_'
'prosecution_'
'prohibition_'
'proactive_'
'preoccupied_'
'predominantly_'
'plastic_'
'pessimistic_'
'over'
'outbreaks_'
'ously_'
'odd_'
'murdered_'
'ms_'
'monarchy_'
'maximizing_'
'machinery_'
'journalism_'
'jihadists_'
'investigations_'
'imposes_'
'guns_'
'gift_'
'geopolitics_'
'fundamentalist_'
'financiers_'
'fat_'
'fans_'
'embodied_'
'eighteenth_'
'diversified_'
'disorderly_'
'diffusion_'
'delicate_'
'crowds_'
'credentials_'
'contradiction_'
'conditionality_'
'complement_'
'com_'
'cleaner_'
'celebrated_'
'brothers_'
'boats_'
'beneath_'
'artificially_'
'agent_'
'Warsaw_'
'Uber_'
'Trichet_'
'Orthodox_'
'Narendra_'
'Mechanism_'
'Marx_'
'Major_'
'MUNICH_'
'Little_'
'KONG_'
'Home_'
'HONG_'
'Emmanuel_'
'67_'
'1962_'
'%-_'
'% (_'
'”?_'
'weakens_'
'uncomfortable_'
'tly_'
'taxpayer_'
'socioeconomic_'
'servants_'
'retains_'
'retained_'
'repaid_'
'realm_'
'ratification_'
'precautionary_'
'plunge_'
'perverse_'
'persistently_'
'peg_'
'paths_'
'operated_'
'objections_'
'nervous_'
'meets_'
'lucky_'
'lagging_'
'jurisdictions_'
'invention_'
'interdependent_'
'ingredients_'
'independently_'
'incompatible_'
'illicit_'
'hitting_'
'hardship_'
'geographical_'
'futile_'
'footing_'
'explore_'
'enthusiastic_'
'divorce_'
'disposable_'
'discouraging_'
'disappointed_'
'conducting_'
'chemicals_'
'blown_'
'autumn_'
'administered_'
'accommodation_'
'Well_'
'Resolution_'
'Ki_'
'Kashmir_'
'Inequality_'
'Ho'
'Harry_'
'Cor'
'Catalonia_'
'B'
'Achieving_'
' £_'
'zes_'
'withdrawn_'
'tyranny_'
'turbulence_'
'tuberculosis_'
'trivial_'
'tier_'
'tape_'
'staying_'
'specialists_'
'slack_'
'siege_'
'ses_'
'searching_'
'retaliation_'
'resembles_'
'republic_'
'relatives_'
'rejects_'
'proving_'
'prosecutor_'
'proponents_'
'primacy_'
'powered_'
'portray_'
'plastics_'
'persistence_'
'penalties_'
'outdated_'
'obsession_'
'modernizing_'
'mismanagement_'
'militia_'
'longest_'
'izing_'
'integrating_'
'inform_'
'inertia_'
'imprisoned_'
'impeded_'
'homeland_'
'heated_'
'governors_'
'ged_'
'gamble_'
'fraught_'
'flee_'
'engineered_'
'disrupted_'
'discoveries_'
'disappointment_'
'cyberspace_'
'curtail_'
'constrain_'
'civilized_'
'burn_'
'burdened_'
'basically_'
'bacteria_'
'awarded_'
'analytical_'
'als_'
'alleviate_'
'acceleration_'
'Which_'
'Uruguay_'
'Transatlantic_'
'Tibetan_'
'Six_'
'Schäuble_'
'Rohingya_'
'Mohammed_'
'Malaria_'
'MIT_'
'Liberia_'
'Koizumi_'
'Intelligence_'
'Greater_'
'Governing_'
'Gore_'
'Fear_'
'Cypriot_'
'Conservatives_'
'Belt_'
'Bannon_'
'1987_'
'1985_'
'1920_'
'. (_'
'%) _'
' -_'
'wartime_'
'vigorous_'
'useless_'
'ugly_'
'u'
'traveled_'
'transmitted_'
'trades_'
'tank_'
'takeover_'
'successors_'
'strengthens_'
'sorts_'
'sixth_'
'shopping_'
'sensitivity_'
'selective_'
'restrictive_'
'resign_'
'religions_'
'publish_'
'prosper_'
'professors_'
'pretend_'
'plague_'
'pieces_'
'perspectives_'
'persons_'
'peers_'
'outward_'
'nu'
'neighborhoods_'
'morning_'
'mobilizing_'
'mixture_'
'mild_'
'mayor_'
'mantra_'
'manipulated_'
'mandates_'
'ma'
'locally_'
'lly_'
'leap_'
'landmark_'
'jeopardizing_'
'hardline_'
'glance_'
'ger_'
'frozen_'
'framed_'
'fertile_'
'fascism_'
'eve_'
'drones_'
'divisive_'
'disability_'
'diaspora_'
'describing_'
'convert_'
'continuity_'
'colleague_'
'collar_'
'collapses_'
'clinics_'
'blessing_'
'automobile_'
'asserted_'
'airports_'
'acknowledging_'
'accordance_'
'Vi'
'Standard_'
'Shiite_'
'Seoul_'
'Sen_'
'Oxford_'
'Northeast_'
'NGO_'
'E'
'Colombian_'
'64_'
'62_'
'1978_'
'1975_'
'1947_'
'widen_'
'volumes_'
'variable_'
'user_'
'upheaval_'
'unregulated_'
'supplying_'
'submit_'
'squeeze_'
'sovereigns_'
'settings_'
'recovering_'
'racist_'
'puzzle_'
'pulling_'
'pronounced_'
'procedure_'
'praise_'
'overcapacity_'
'orientation_'
'organs_'
'obscure_'
'mosquito_'
'matched_'
'lobby_'
'intact_'
'improves_'
'imprisonment_'
'impacts_'
'ills_'
'formerly_'
'forged_'
'fever_'
'exciting_'
'eligible_'
'distributional_'
'cushion_'
'catalyst_'
'bets_'
'banker_'
'advancement_'
'abound_'
'Zedong_'
'U'
'Things_'
'Ten_'
'Taiwanese_'
'Progress_'
'Po'
'Mohammad_'
'Management_'
'Georgian_'
'Fox_'
'Dubai_'
'Congo_'
'Based_'
'Atomic_'
'Americas_'
'Alexander_'
'41_'
'1948_'
'withdrawing_'
'weigh_'
'wealthiest_'
'virtues_'
'unskilled_'
'unconditional_'
'theirs_'
'teacher_'
'tactic_'
'surged_'
'strife_'
'stricter_'
'spill_'
'sizeable_'
'sacrifices_'
'sacred_'
'risking_'
'respondents_'
'refinancing_'
'readiness_'
'questionable_'
'prerequisite_'
'possession_'
'plain_'
'pandemic_'
'opaque_'
'observation_'
'multipolar_'
'lity_'
'license_'
'length_'
'junta_'
'inflated_'
'indicating_'
'incoming_'
'imposition_'
'imperatives_'
'holiday_'
'hole_'
'heritage_'
'healthcare_'
'gridlock_'
'grain_'
'g'
'fisheries_'
'experimental_'
'embarked_'
'eating_'
'dividing_'
'dissidents_'
'disclosure_'
'depressing_'
'depreciate_'
'deepened_'
'debacle_'
'curve_'
'cool_'
'condemn_'
'clock_'
'charismatic_'
'brutality_'
'bailed_'
'aversion_'
'anymore_'
'answered_'
'analyze_'
'Yushchenko_'
'Years_'
'Uribe_'
'Taylor_'
'Slovakia_'
'Schengen_'
'SEOUL_'
'Morales_'
'Make_'
'Deputy_'
'Citizens_'
'Area_'
'1940_'
'worthwhile_'
'worlds_'
'wisely_'
'visions_'
'viability_'
'versa_'
'uprisings_'
'upgrade_'
'unbalanced_'
'tourists_'
'totalitarian_'
'suggestion_'
'spots_'
'slows_'
'sighted_'
'shelter_'
'secrecy_'
'secession_'
'scant_'
'rid_'
'reproductive_'
'properties_'
'portrayed_'
'peninsula_'
'occasions_'
'nostalgia_'
'ng'
'mirror_'
'mathematics_'
'marketplace_'
'logistics_'
'lawyer_'
'lags_'
'laboratory_'
'ks_'
'jointly_'
'innovators_'
'illustrates_'
'horrors_'
'fruits_'
'fortunes_'
'fledged_'
'fertilizer_'
'fearful_'
'extract_'
'ered_'
'endure_'
'diversify_'
'defines_'
'cow_'
'convicted_'
'continuation_'
'constituency_'
'consequential_'
'commentary_'
'bizarre_'
'behaviors_'
'authorized_'
'asymmetric_'
'arising_'
'arena_'
'analyses_'
'ably_'
'\\_'
'Technology_'
'Tanzania_'
'Studies_'
'Senkaku_'
'Scandinavian_'
'OMT_'
'Nobody_'
'Mitt_'
'Mar'
'Hollywood_'
'GM_'
'Do'
'Austrian_'
'Affordable_'
'58_'
'52_'
'2000s_'
'1972_'
'#_'
'yielded_'
'varied_'
'toppled_'
'tipping_'
'tip_'
'taxed_'
'tailored_'
'swift_'
'supreme_'
'spark_'
'sing_'
'simpler_'
'seldom_'
'seed_'
'resisting_'
'reassure_'
'rape_'
'racism_'
'precarious_'
'possesses_'
'peril_'
'overwhelmed_'
'occupying_'
'notwithstanding_'
'ngs_'
'myself_'
'mount_'
'monopolies_'
'manages_'
'magic_'
'lucrative_'
'lock_'
'listening_'
'influences_'
'hypocrisy_'
'hyper_'
'handling_'
'han_'
'groundwork_'
'gesture_'
'fusion_'
'examination_'
'endangered_'
'diagnosed_'
'devised_'
'develops_'
'der_'
'deadline_'
'clubs_'
'champions_'
'capturing_'
'boy_'
'boosts_'
'atomic_'
'assertion_'
'arts_'
'allied_'
'Yasukuni_'
'Rumsfeld_'
'Refugees_'
'Orange_'
'OSCE_'
'NTC_'
'Lagarde_'
'Karzai_'
'Facility_'
'Credit_'
'Corbyn_'
'Britons_'
'53_'
' &_'
'workplace_'
'variations_'
'underscore_'
'underpinning_'
'unanimously_'
'u0027s_'
'tripled_'
'tortured_'
'tolerant_'
'tightened_'
'technologically_'
'summits_'
'subtle_'
'stretch_'
'starvation_'
'spiritual_'
'spillover_'
'sister_'
'sis_'
'simplistic_'
'signaling_'
'sidelines_'
'shorter_'
'shore_'
'royal_'
'retrenchment_'
'resurgence_'
'rescued_'
'reporters_'
'recruit_'
'recourse_'
'rainfall_'
'radicalization_'
'prosecutors_'
'populous_'
'polarized_'
'patriotism_'
'passes_'
'nts_'
'minimizing_'
'mergers_'
'married_'
'magazine_'
'likewise_'
'kids_'
'jihadist_'
'jihad_'
'inefficiency_'
'imperialism_'
'helium_'
'harmony_'
'geo_'
'foresee_'
'fixing_'
'fatigue_'
'faction_'
'drastic_'
'doses_'
'disparate_'
'disadvantaged_'
'developers_'
'devastated_'
'delays_'
'crafted_'
'contend_'
'compassion_'
'coincidence_'
'coercion_'
'capitalize_'
'candidacy_'
'blaming_'
'bent_'
'ball_'
'assurances_'
'Universal_'
'USSR_'
'Thirty_'
'Strategic_'
'Securities_'
'SPD_'
'Price_'
'Powell_'
'Latvia_'
'Keynesians_'
'José_'
'Glass_'
'Getting_'
'Francisco_'
'EFSF_'
'Dream_'
'Control_'
'Carter_'
'Bulgaria_'
'Brexiteers_'
'Boston_'
'350_'
'1974_'
'%), _'
'·        _'
'writers_'
'wear_'
'wealthier_'
'watershed_'
'vessels_'
'upholding_'
'untenable_'
'underscored_'
'transformational_'
'textbook_'
'stringent_'
'stature_'
'stars_'
'stabilized_'
'solvency_'
'smarter_'
'seeming_'
'savvy_'
'rocket_'
'replied_'
'remedies_'
'punished_'
'predicament_'
'peculiar_'
'overlook_'
'obsessed_'
'naive_'
'mobilization_'
'ministerial_'
'mentality_'
'lofty_'
'lists_'
'ley_'
'ker_'
'investigate_'
'inclusiveness_'
'heating_'
'forging_'
'fiction_'
'fearing_'
'fascist_'
'famine_'
'exposing_'
'ethos_'
'epidemics_'
'dysfunction_'
'donations_'
'dismantling_'
'deploying_'
'convened_'
'contemplate_'
'confirms_'
'computing_'
'comparing_'
'collaborative_'
'circulation_'
'chooses_'
'chaotic_'
'breach_'
'bombings_'
'automobiles_'
'asserting_'
'arose_'
'armies_'
'agrees_'
'advocacy_'
'abrupt_'
'Winston_'
'Way_'
'Terrorism_'
'Success_'
'Shah_'
'Saxon_'
'SDG_'
'Relations_'
'Nature_'
'Medical_'
'MILAN_'
'Luxembourg_'
'FBI_'
'Ehud_'
'Early_'
'Drawing_'
'Death_'
'Currently_'
'Costa_'
'Catholics_'
'Barroso_'
'49_'
'%)._'
'yourself_'
'y'
'worldview_'
'vowed_'
'translated_'
'survivors_'
'supplied_'
'subsidize_'
'string_'
'staged_'
'slide_'
'session_'
'sa'
'rooms_'
'ridden_'
'rewarded_'
'revenge_'
'reminds_'
'redress_'
'recapitalization_'
'purchased_'
'punitive_'
'prevalent_'
'premiums_'
'pneumonia_'
'pilot_'
'mountain_'
'mile_'
'leaning_'
'ization_'
'ious_'
'indices_'
'ier_'
'i'
'hosting_'
'hopeful_'
'hoc_'
'ho'
'hardliners_'
'frame_'
'evaluation_'
'enforcing_'
'en'
'domain_'
'diplomat_'
'determines_'
'council_'
'consciousness_'
'conscience_'
'conception_'
'committees_'
'combines_'
'charisma_'
'catalyze_'
'brilliant_'
'branches_'
'beating_'
'audiences_'
'assembled_'
'advent_'
'acquiring_'
']_'
'Wolfowitz_'
'William_'
'V_'
'V'
'Santos_'
'Mo'
'Medicaid_'
'Massachusetts_'
'MPs_'
'Later_'
'Kofi_'
'Karl_'
'Ka'
'Information_'
'F'
'Employment_'
'Darwin_'
'Czechoslovakia_'
'Chernobyl_'
'Bi'
'Be_'
'1950s_'
'¥_'
'yellow_'
'ya'
'xenophobia_'
'worsened_'
'withdrew_'
'widened_'
'vocational_'
'visa_'
'virtuous_'
'variant_'
'trick_'
'thoroughly_'
'subprime_'
'spared_'
'slavery_'
'shy_'
'shaken_'
'severity_'
'reviews_'
'recoveries_'
'rankings_'
'preceding_'
'observer_'
'murderous_'
'motive_'
'mode_'
'meaningless_'
'manipulating_'
'lows_'
'legislature_'
'laying_'
'ironic_'
'infant_'
'impetus_'
'ie_'
'hybrid_'
'hosts_'
'holy_'
'heroes_'
'hed_'
'hawks_'
'forgiveness_'
'films_'
'ethnicity_'
'enters_'
'dragged_'
'disciplines_'
'deteriorated_'
'designing_'
'defenders_'
'converge_'
'contingent_'
'contempt_'
'compound_'
'cholera_'
'bloodshed_'
'attainment_'
'aiming_'
'adjusting_'
'Work_'
'Varoufakis_'
'Think_'
'Ta'
'SDRs_'
'Recognizing_'
'RMB_'
'Niger_'
'Muhammad_'
'Millions_'
'Larry_'
'Intergovernmental_'
'Innovation_'
'ICTY_'
'Hassan_'
'FIFA_'
'Data_'
'Damascus_'
'Case_'
'CBO_'
'900_'
'63_'
'wrought_'
'wholly_'
'von_'
'voluntarily_'
'verdict_'
'unveiled_'
'traumatic_'
'tracking_'
'therapies_'
'textbooks_'
'tempting_'
'taboo_'
'sting_'
'sterling_'
'standpoint_'
'specified_'
'shop_'
'shattered_'
'safeguarding_'
'row_'
'rogue_'
'ri_'
'rents_'
'random_'
'publishing_'
'proportions_'
'prisons_'
'polling_'
'pie_'
'petroleum_'
'parallels_'
'ner_'
'nationality_'
'mis'
'liberalizing_'
'lengthy_'
'isolationism_'
'isolate_'
'interpret_'
'inter'
'injured_'
'injections_'
'hypothesis_'
'hierarchy_'
'guaranteeing_'
'fashioned_'
'externalities_'
'employing_'
'dynasty_'
'divert_'
'diarrhea_'
'devastation_'
'department_'
'courageous_'
'couldn_'
'corporation_'
'coordinating_'
'convenient_'
'confronts_'
'conducive_'
'condemnation_'
'completing_'
'cheaply_'
'chapter_'
'celebration_'
'broadcast_'
'brains_'
'believers_'
'battlefield_'
'athletes_'
'arsenals_'
'announcing_'
'ambiguous_'
'alienated_'
'aided_'
'accumulating_'
'abortion_'
'Tamil_'
'Suppose_'
'St_'
'Snowden_'
'Prince_'
'Peres_'
'Pa'
'Nordic_'
'Local_'
'Ko'
'Khodorkovsky_'
'J'
'Frankfurt_'
'Faced_'
'Democrat_'
'CDU_'
'Buddhist_'
'Bhutan_'
'Being_'
'Anwar_'
'46_'
'1984_'
'..._'
'wood_'
'w'
'urging_'
'uniquely_'
'undergo_'
'unchecked_'
'tri'
'trans_'
'throwing_'
'thoughtful_'
'taste_'
'tail_'
'supranational_'
'succumb_'
'stupid_'
'strive_'
'stresses_'
'strained_'
'stops_'
'stolen_'
'stayed_'
'squandered_'
'societal_'
'similarities_'
'sha'
'settlers_'
'rivalries_'
'revision_'
'requests_'
'reckoning_'
'ravaged_'
'que_'
'prudence_'
'ped_'
'passionate_'
'ot_'
'offense_'
'occupy_'
'ne'
'massively_'
'mandated_'
'loved_'
'lobbyists_'
'lax_'
'ities_'
'interfere_'
'intend_'
'inspiring_'
'infamous_'
'hotel_'
'goodwill_'
'flu_'
'fiscally_'
'fines_'
'federalism_'
'expecting_'
'erratic_'
'endorsement_'
'ek_'
'disappearance_'
'dis'
'designs_'
'designated_'
'decay_'
'curbing_'
'contested_'
'compensated_'
'clarify_'
'campaigning_'
'cally_'
'broadening_'
'autocracy_'
'attributable_'
'abundance_'
'Xinjiang_'
'W'
'Test_'
'Taking_'
'Steagall_'
'STANFORD_'
'Likud_'
'Income_'
'IP_'
'Environment_'
'Enlightenment_'
'Emirates_'
'Efforts_'
'Drug_'
'Coal_'
'Chechnya_'
'Academy_'
'66_'
'zombie_'
'wearing_'
'warranted_'
'walking_'
'unusually_'
'universally_'
'unilateralism_'
'underpins_'
'turbulent_'
'tour_'
'tacit_'
'suspend_'
'succeeding_'
'subdued_'
'starkly_'
'spheres_'
'slight_'
'simultaneous_'
'section_'
'scholar_'
'salary_'
'robot_'
'regulator_'
'qualify_'
'purge_'
'presupposes_'
'premise_'
'powerhouse_'
'ol_'
'nationwide_'
'modification_'
'measurable_'
'marijuana_'
'looms_'
'loaded_'
'livestock_'
'lifestyles_'
'ler_'
'lawmakers_'
'ish_'
'inquiry_'
'importers_'
'ideally_'
'ically_'
'humiliating_'
'hiding_'
'hasn_'
'grids_'
'grab_'
'fringe_'
'friction_'
'fortunate_'
'filling_'
'farther_'
'et_'
'ering_'
'encounter_'
'dropping_'
'directions_'
'devaluations_'
'deterrent_'
'derive_'
'counting_'
'corn_'
'copy_'
'converted_'
'contradictions_'
'constituents_'
'consolidated_'
'conservatism_'
'combining_'
'collecting_'
'coined_'
'codes_'
'clearing_'
'characteristic_'
'blunt_'
'beef_'
'bars_'
'attached_'
'assessed_'
'ambiguity_'
'adapting_'
'acquisition_'
'abstract_'
'Te'
'Ryan_'
'Presidents_'
'Out_'
'Murdoch_'
'Maliki_'
'Khomeini_'
'ICT_'
'He'
'Experts_'
'Einstein_'
'ESM_'
'Danish_'
'Croatia_'
'Corruption_'
'C'
'Besides_'
'Balkan_'
'Aside_'
'Armed_'
'Aleppo_'
'Agriculture_'
'82_'
'1944_'
'140_'
'wishful_'
'wholesale_'
'vigorously_'
'uniform_'
'transferring_'
'supplier_'
'stic_'
'spearheaded_'
'sin_'
'signature_'
'segment_'
'retaining_'
'relating_'
'protective_'
'pregnant_'
'preferable_'
'practitioners_'
'posing_'
'phased_'
'pave_'
'patriotic_'
'overvalued_'
'oversee_'
'overheating_'
'outgoing_'
'multinationals_'
'mines_'
'lip_'
'lingering_'
'leisure_'
'ku'
'interior_'
'inflict_'
'implicitly_'
'ility_'
'ideologies_'
'hubris_'
'highs_'
'harness_'
'hand'
'generic_'
'exploring_'
'exert_'
'excitement_'
'drilling_'
'dominates_'
'discouraged_'
'dilemmas_'
'departments_'
'deductions_'
'declarations_'
'crossroads_'
'covert_'
'countryside_'
'concludes_'
'citing_'
'characterize_'
'championed_'
'caste_'
'campaigned_'
'calculus_'
'buried_'
'blocs_'
'babies_'
'automated_'
'assertiveness_'
'amendments_'
'aggravated_'
'absorbed_'
'Zionism_'
'Semitic_'
'Sadat_'
'Nigerian_'
'Land_'
'Kenneth_'
'Iron_'
'Inter_'
'Haram_'
'En'
'Elsewhere_'
'Election_'
'Consumer_'
'Compared_'
'Coming_'
'Chi'
'Capitalism_'
'CN_'
'Bernie_'
'Alas_'
'Aid_'
'1949_'
' '
'za'
'victories_'
'upheavals_'
'uneven_'
'tribunal_'
'transcend_'
'topics_'
't'
'sway_'
'suppressed_'
'sponsors_'
'spin_'
'shoulder_'
'revise_'
'reviewed_'
'proteins_'
'prop_'
'priced_'
'passion_'
'organ_'
'opposes_'
'operators_'
'offsetting_'
'nationals_'
'monitored_'
'mineral_'
'meddling_'
'label_'
'ky_'
'kin_'
'killer_'
'journal_'
'invoked_'
'instances_'
'input_'
'individually_'
'indications_'
'incite_'
'implosion_'
'hurricanes_'
'guilt_'
'flaw_'
'favoring_'
'exercised_'
'enrich_'
'empowering_'
'distort_'
'displayed_'
'dismantle_'
'discern_'
'depleted_'
'de'
'dams_'
'cruel_'
'criticizing_'
'criterion_'
'covers_'
'conversion_'
'contexts_'
'confusing_'
'commensurate_'
'cloud_'
'climb_'
'chaired_'
'cents_'
'canceled_'
'caliphate_'
'cable_'
'bolstering_'
'bolstered_'
'blocks_'
'betting_'
'belongs_'
'articles_'
'antibiotic_'
'alienation_'
'Y'
'Working_'
'Wilders_'
'Westerners_'
'Something_'
'Serbian_'
'Seas_'
'Rica_'
'PLA_'
'Nicaragua_'
'Morgan_'
'Man'
'Katrina_'
'Journal_'
'Joint_'
'Hurricane_'
'Her'
'Go'
'Du'
'Dar'
'Currency_'
'Comprehensive_'
'Commissioner_'
'Coalition_'
'Cheney_'
'Carbon_'
'Azerbaijan_'
'? _'
'180_'
'weighed_'
'violating_'
'versions_'
'ved_'
'unraveling_'
'under'
'undeniable_'
'trump_'
'suspects_'
'supremacy_'
'suffice_'
'stroke_'
'stagnating_'
'smoothly_'
'sleep_'
'sinking_'
'sentences_'
'schedule_'
'routes_'
'rough_'
'rolling_'
'retirees_'
'resumption_'
'responsibly_'
'requested_'
'reign_'
'railway_'
'pump_'
'protocol_'
'promptly_'
'prohibit_'
'preparation_'
'powerless_'
'plentiful_'
'physicians_'
'pandemics_'
'occupations_'
'nes_'
'negara_'
'n'
'misses_'
'meager_'
'm'
'logistical_'
'linguistic_'
'lights_'
'killers_'
'jumped_'
'jihadi_'
'ini_'
'ily_'
'illusions_'
'identification_'
'ians_'
'hurricane_'
'highway_'
'hegemon_'
'halted_'
'grouping_'
'go'
'genius_'
'ga_'
'franc_'
'formulate_'
'fence_'
'f'
'ey_'
'experimentation_'
'exact_'
'escaped_'
'equation_'
'embodies_'
'egregious_'
'disdain_'
'dip_'
'dictates_'
'depreciated_'
'debating_'
'cronies_'
'conventions_'
'convene_'
'continually_'
'contacts_'
'condemning_'
'completion_'
'comparisons_'
'communal_'
'co'
'clothing_'
'ci'
'charity_'
'businessman_'
'burgeoning_'
'bullying_'
'boat_'
'birds_'
'bind_'
'bar'
'attribute_'
'attractiveness_'
'aspire_'
'articulated_'
'analogous_'
'Yale_'
'Wars_'
'Tymoshenko_'
'Scientists_'
'Salvador_'
'Saakashvili_'
'Rice_'
'Recovery_'
'Rabin_'
'Plenum_'
'Osborne_'
'Or'
'OXFORD_'
'Munich_'
'Milosevic_'
'Migration_'
'Je'
'Fa'
'Current_'
'Corporate_'
'Columbia_'
'Cities_'
'CCS_'
'Burmese_'
'Bosnian_'
'Boko_'
'BP_'
'Annual_'
'·         _'
'xenophobic_'
'weighted_'
'waning_'
'ving_'
'usage_'
'unfettered_'
'tree_'
'tor_'
'thy_'
'thoughts_'
'testimony_'
'tale_'
'swiftly_'
'surpass_'
'super'
'stuff_'
'strides_'
'straight_'
'soar_'
'smoke_'
'separated_'
'sed_'
'secularism_'
'rumors_'
'rolled_'
'riskier_'
'ries_'
'retire_'
'restructured_'
'restaurants_'
'republics_'
'renew_'
'provider_'
'prioritize_'
'precision_'
'practiced_'
'polity_'
'politicized_'
'pleasure_'
'phenomena_'
'paved_'
'ov_'
'orthodox_'
'opium_'
'objects_'
'nonsense_'
'nice_'
'ni'
'mini_'
'metric_'
'melting_'
'mankind_'
'manager_'
'lobbies_'
'lawsuits_'
'judging_'
'ize_'
'invite_'
'invitation_'
'invading_'
'inexpensive_'
'incumbents_'
'inauguration_'
'immunity_'
'homegrown_'
'hi'
'heights_'
'healing_'
'hailed_'
'guerrilla_'
'girl_'
'folly_'
'fabric_'
'equals_'
'encountered_'
'ence_'
'emanating_'
'ec'
'drift_'
'detainees_'
'desert_'
'defiance_'
'deepest_'
'dates_'
'curious_'
'culminated_'
'cs_'
'crucially_'
'couples_'
'costing_'
'contracted_'
'constraining_'
'connecting_'
'comprehend_'
'colonialism_'
'collaborate_'
'church_'
'brutally_'
'briefly_'
'bribes_'
'bosses_'
'bite_'
'bipolar_'
'barred_'
'bans_'
'ba'
'autocrats_'
'augment_'
'appalling_'
'accepts_'
'Ya'
'To'
'Ra'
'Problem_'
'Prague_'
'Pradesh_'
'Piketty_'
'Na'
'Le'
'Kirchner_'
'Ibrahim_'
'Hamilton_'
'Grexit_'
'Golden_'
'Daniel_'
'Carney_'
'BEACH_'
'Athens_'
'Andrew_'
'Alibaba_'
'Abkhazia_'
'72_'
'59_'
'%; _'
'wounds_'
'wounded_'
'wield_'
'weakest_'
'waging_'
'viruses_'
'unexpectedly_'
'trains_'
'tradeoff_'
'tightly_'
'tar'
'swings_'
'stifling_'
'steer_'
'speaker_'
'scaling_'
'retailers_'
'repeating_'
'relentlessly_'
'regret_'
'referenda_'
'printed_'
'pretext_'
'petty_'
'perpetual_'
'pause_'
'patronage_'
'park_'
'ousted_'
'noble_'
'negligible_'
'muscle_'
'motivations_'
'millennia_'
'milestone_'
'loud_'
'lining_'
'landslide_'
'install_'
'inferior_'
'impediments_'
'illiquid_'
'ical_'
'hubs_'
'her'
'happily_'
'freed_'
'filed_'
'feeding_'
'fathers_'
'fairer_'
'extra'
'expire_'
'expands_'
'entitlements_'
'encouragement_'
'definitive_'
'dare_'
'dampen_'
'curriculum_'
'coups_'
'copper_'
'convenience_'
'contracting_'
'comment_'
'capitalists_'
'calamity_'
'breeding_'
'backstop_'
'ay_'
'attachment_'
'astonishing_'
'artists_'
'architects_'
'alert_'
'addiction_'
'abide_'
'Yo'
'Unsurprisingly_'
'Trust_'
'Tocqueville_'
'Strip_'
'Stock_'
'Soviets_'
'Schröder_'
'Ram'
'Paradoxically_'
'Napoleon_'
'Mis'
'Mexicans_'
'Man_'
'Lu'
'La'
'Kaczyński_'
'Jobs_'
'Jo'
'Janet_'
'Inter'
'Havel_'
'GENEVA_'
'Further_'
'Financing_'
'Dialogue_'
'Consequently_'
'Co'
'Citigroup_'
'Agricultural_'
'Abdel_'
'?” _'
'98_'
'77_'
'54_'
'1969_'
'1931_'
'12th_'
'.  _'
'é'
'ze'
'wonders_'
'wondering_'
'ward_'
'vengeance_'
'unimaginable_'
'topple_'
'telephone_'
'teeth_'
'suspicions_'
'suppressing_'
'spell_'
'slogans_'
'skewed_'
'sink_'
'shutdown_'
'shortfalls_'
'shores_'
'shops_'
'shooting_'
'shake_'
'separatists_'
'sentenced_'
'rewarding_'
'responds_'
'res_'
'reiterated_'
'register_'
'pursues_'
'praised_'
'permitting_'
'periodic_'
'pensioners_'
'peaked_'
'p'
'overarching_'
'noticed_'
'normalize_'
'nationalistic_'
'mutations_'
'muddle_'
'messy_'
'liked_'
'lent_'
'lean_'
'kes_'
'intolerance_'
'intimidation_'
'internationalization_'
'insurers_'
'instant_'
'incorporated_'
'incorporate_'
'immoral_'
'immensely_'
'hy'
'humane_'
'holes_'
'hanging_'
'habit_'
'ga'
'friendship_'
'finish_'
'finger_'
'file_'
'excellence_'
'ets_'
'escalate_'
'eroding_'
'envisaged_'
'endorse_'
'emperor_'
'dy_'
'dumping_'
'downgrade_'
'doubtful_'
'desperation_'
'derail_'
'delaying_'
'deception_'
'cultivate_'
'convey_'
'conversations_'
'compulsory_'
'comprised_'
'cleansing_'
'chart_'
'calculate_'
'buildup_'
'brunt_'
'boss_'
'bloated_'
'billionaire_'
'biased_'
'antimicrobial_'
'ano'
'ani'
'abruptly_'
'Zika_'
'Z'
'Vatican_'
'Tahrir_'
'Stephen_'
'Sta'
'Se'
'Saleh_'
'SWFs_'
'Risk_'
'Rich_'
'Portuguese_'
'PA_'
'MGI_'
'Li'
'Insurance_'
'Has_'
'Gu'
'Grand_'
'Fidel_'
'Domestic_'
'Child_'
'Century_'
'CITY_'
'Bo'
'74_'
'56_'
'0'
'warrant_'
'waged_'
'victorious_'
'updated_'
'undemocratic_'
'tense_'
'suits_'
'suitable_'
'stifle_'
'stall_'
'sober_'
'sided_'
'shortly_'
'shield_'
'sand_'
'sample_'
's'
'ruthless_'
'rockets_'
'roadmap_'
'restaurant_'
'refuge_'
'provocative_'
'premier_'
'plummeting_'
'pil'
'pessimists_'
'panacea_'
'ow_'
'non'
'narrowed_'
'multiculturalism_'
'meter_'
'matching_'
'mar'
'maps_'
'manifest_'
'lion_'
'legislatures_'
'layer_'
'labeled_'
'io_'
'intergovernmental_'
'inadvertently_'
'impulse_'
'ignorant_'
'idle_'
'hurting_'
'harmonization_'
'glory_'
'generational_'
'frightening_'
'founders_'
'fade_'
'ement_'
'embark_'
'electorates_'
'elaborate_'
'eggs_'
'draws_'
'district_'
'dissatisfaction_'
'disparity_'
'differential_'
'deteriorate_'
'desires_'
'descendants_'
'deadlock_'
'daughters_'
'culturally_'
'cry_'
'cooking_'
'concede_'
'classroom_'
'charter_'
'capitalized_'
'cancers_'
'bullet_'
'builds_'
'biases_'
'beauty_'
'bashing_'
'banning_'
'ban'
'backgrounds_'
'attending_'
'assure_'
'ang'
'altering_'
'altered_'
'afflicted_'
'admired_'
'absorbing_'
'Ye'
'Were_'
'Voters_'
'Un'
'Transparency_'
'Trans'
'Therefore_'
'Stiglitz_'
'Star_'
'Stanford_'
'Speaker_'
'Short_'
'Serb_'
'Sciences_'
'Roughly_'
'Pri'
'Pentagon_'
'Panama_'
'PRI_'
'No'
'Manmohan_'
'Lo'
'Lessons_'
'Jimmy_'
'Initially_'
'ICC_'
'Game_'
'Fischer_'
'FOMC_'
'Everything_'
'Car'
'Beirut_'
'Apart_'
'Admittedly_'
'2019_'
' & _'
'yesterday_'
'winds_'
'wildlife_'
'vocal_'
'variation_'
'vanished_'
'untuk_'
'unjust_'
'troop_'
'tribes_'
'traveling_'
'tive_'
'theater_'
'texts_'
'ta'
'swung_'
'suspension_'
'suicidal_'
'spectacularly_'
'specialization_'
'smuggling_'
'shall_'
'seventeenth_'
'setback_'
'servicing_'
'sends_'
'sellers_'
'selfish_'
'scaled_'
'sat_'
'remarks_'
'recycling_'
'recruitment_'
'provocations_'
'prompt_'
'positively_'
'planting_'
'pivotal_'
'perilous_'
'parks_'
'outlined_'
'originated_'
'ori'
'optimists_'
'oppressive_'
'ominous_'
'notoriously_'
'noting_'
'negatively_'
'molecular_'
'metrics_'
'med_'
'measurement_'
'lets_'
'leaks_'
'ked_'
'junior_'
'issuance_'
'ire_'
'invaluable_'
'interpretations_'
'incited_'
'impediment_'
'impedes_'
'impaired_'
'illiteracy_'
'horror_'
'halved_'
'granting_'
'fla'
'expenses_'
'excludes_'
'escaping_'
'envy_'
'embody_'
'doom_'
'determinant_'
'detained_'
'deficient_'
'deficiency_'
'da'
'd'
'crumbling_'
'critique_'
'cornerstone_'
'contributor_'
'concert_'
'compromising_'
'combatants_'
'colonies_'
'catching_'
'cartels_'
'bullets_'
'bombers_'
'boasts_'
'biotechnology_'
'baseline_'
'awaited_'
'averaging_'
'articulate_'
'arrow_'
'arrogance_'
'airport_'
'afforded_'
'adherence_'
'abolished_'
'abolish_'
'abilities_'
'Ve'
'Tu'
'Treasuries_'
'TA'
'Su'
'Silva_'
'Michel_'
'MOSCOW_'
'Los_'
'Lithuania_'
'Leadership_'
'Kyiv_'
'Interestingly_'
'Hayek_'
'Gerhard_'
'Estonia_'
'Edward_'
'Cross_'
'Communists_'
'Club_'
'Carmen_'
'Cal'
'CHICAGO_'
'Ba'
'Addressing_'
'Ab'
'ATHENS_'
'AIG_'
'88_'
'). _'
'’ “_'
'z'
'wasteful_'
'volunteers_'
'ventures_'
'validity_'
'utilities_'
'upheld_'
'unpleasant_'
'unhealthy_'
'uneasy_'
'unaware_'
'ubiquitous_'
'tune_'
'tumor_'
'totaling_'
'tis'
'timetable_'
'suppose_'
'stockpiles_'
'stagnated_'
'spotlight_'
'song_'
'sometime_'
'sle'
'shrunk_'
'shoes_'
'setbacks_'
'sequencing_'
'senators_'
'seizing_'
'rupee_'
'rhetorical_'
'redistributive_'
'quit_'
'provoking_'
'propel_'
'prominence_'
'prescriptions_'
'posture_'
'please_'
'paramount_'
'out'
'ni_'
'newfound_'
'nces_'
'naïve_'
'nationalization_'
'mounted_'
'mercy_'
'mediocre_'
'masters_'
'marry_'
'maker_'
'lunch_'
'loosen_'
'lo'
'linear_'
'li_'
'leaked_'
'joblessness_'
'intermediate_'
'inheritance_'
'influencing_'
'indifferent_'
'incompetent_'
'incidence_'
'highways_'
'hearings_'
'ft_'
'forums_'
'fee_'
'faltering_'
'expressions_'
'establishes_'
'envoy_'
'endowments_'
'emit_'
'downstream_'
'discriminatory_'
'discredit_'
'deterred_'
'destined_'
'demographics_'
'demagogues_'
'defy_'
'defuse_'
'debilitating_'
'countering_'
'cooperating_'
'circumvent_'
'carnage_'
'buys_'
'bout_'
'award_'
'arrows_'
'architect_'
'appearing_'
'antagonism_'
'annualized_'
'anchored_'
'anarchy_'
'ammunition_'
'admitting_'
'accompany_'
'Zero_'
'Yukos_'
'Wahhabi_'
'Wa'
'Tunisian_'
'Theresa_'
'TEL_'
'Staff_'
'Sovereign_'
'SINGAPORE_'
'SANTIAGO_'
'Return_'
'Pra'
'Pla'
'Ossetia_'
'Okinawa_'
'Ne'
'Mozambique_'
'Men'
'Lama_'
'Kurdistan_'
'Jim_'
'IBM_'
'Governance_'
'Fight_'
'FTA_'
'Eurasia_'
'Ending_'
'Disease_'
'Dilma_'
'Challenge_'
'COPENHAGEN_'
'Bitcoin_'
'Biden_'
'BA'
'Austerity_'
'Algerian_'
'AVIV_'
'750_'
'68_'
'110_'
'wrongly_'
'writes_'
'wildly_'
'vo'
'utter_'
'upset_'
'unwanted_'
'unrelated_'
'unifying_'
'undesirable_'
'unanimous_'
'ts'
'translates_'
'tolerated_'
'tasked_'
'sympathetic_'
'surveyed_'
'surgical_'
'substitutes_'
'stubbornly_'
'stretching_'
'startups_'
'spectacle_'
'showdown_'
'shipping_'
'seventh_'
'separately_'
'senator_'
'scourge_'
'sa_'
'ruin_'
'restrain_'
'rendering_'
'relieve_'
'relation_'
'reinvigorate_'
'registration_'
'referring_'
'recessionary_'
'recalls_'
'rd_'
'publicized_'
'prosecuted_'
'propensity_'
'propelled_'
'prompting_'
'preservation_'
'predictability_'
'precedents_'
'poster_'
'policing_'
'poet_'
'pioneering_'
'physically_'
'pesticides_'
'persuasive_'
'pending_'
'peasants_'
'pay'
'ours_'
'offspring_'
'obtaining_'
'nuanced_'
'notions_'
'navy_'
'nascent_'
'mystery_'
'momentous_'
'merger_'
'mathematical_'
'loop_'
'loom_'
'longevity_'
'liberated_'
'levers_'
'le'
'journals_'
'instructive_'
'instincts_'
'insider_'
'ingredient_'
'im_'
'hits_'
'histories_'
'guards_'
'grounded_'
'greeted_'
'gi'
'generosity_'
'gauge_'
'flooded_'
'fashionable_'
'examining_'
'erupt_'
'enhances_'
'endeavor_'
'el'
'earners_'
'diversion_'
'divergent_'
'distances_'
'descent_'
'curse_'
'conceptual_'
'commissions_'
'cohesive_'
'coercive_'
'charities_'
'caring_'
'bli'
'biomedical_'
'biofuels_'
'billionaires_'
'barrels_'
'bare_'
'backs_'
'avoids_'
'arriving_'
'appropriately_'
'anxieties_'
'anonymous_'
'analyzing_'
'alism_'
'adherents_'
'acquisitions_'
'accuracy_'
'accomplishments_'
'academia_'
'Za'
'Yemeni_'
'Tobacco_'
'Surely_'
'Start_'
'Socialists_'
'Settlements_'
'Schumpeter_'
'Schroeder_'
'Rise_'
'Reducing_'
'Nowhere_'
'Nazism_'
'Ministers_'
'Mecca_'
'Manchester_'
'Lenin_'
'Khatami_'
'Kan_'
'Jiang_'
'IN'
'Hope_'
'Eisenhower_'
'Effective_'
'Did_'
'Creating_'
'Company_'
'Call_'
'Bureau_'
'Bundestag_'
'Battle_'
'Barcelona_'
'Bad_'
'Am'
'Along_'
'97_'
'5'
'450_'
'26'
'1977_'
'yo'
'work'
'willingly_'
'vitality_'
'vacation_'
'unfinished_'
'una'
'uk'
'twist_'
'tu'
'transformations_'
'tired_'
'ticket_'
'ti'
'thereafter_'
'ters_'
'ten'
'taxi_'
'tainted_'
'supplement_'
'sticking_'
'stepping_'
'stating_'
'squarely_'
'spare_'
'slashed_'
'shortsighted_'
'settling_'
'screen_'
'ry'
'rigged_'
'revolutionaries_'
'resounding_'
'reliant_'
'recapitalize_'
'ration_'
'rallied_'
'rain_'
'railways_'
'quagmire_'
'publications_'
'prolong_'
'preserved_'
'prematurely_'
'prejudices_'
'prejudice_'
'pre'
'posturing_'
'planes_'
'persuading_'
'panels_'
'ozone_'
'owns_'
'ology_'
'nurtured_'
'nurses_'
'motor_'
'moderately_'
'metals_'
'manifestation_'
'loosening_'
'locals_'
'jailed_'
'j'
'inappropriate_'
'ics_'
'hurdles_'
'humiliated_'
'helm_'
'hell_'
'hazards_'
'hardware_'
'harassment_'
'guerrillas_'
'greatness_'
'ghost_'
'formulated_'
'fore_'
'forcefully_'
'fluid_'
'federation_'
'exiting_'
'energies_'
'endgame_'
'ena'
'eli'
'do'
'divides_'
'disarray_'
'diets_'
'deeds_'
'dearth_'
'dawn_'
'crippling_'
'crack_'
'cooling_'
'conundrum_'
'commissioned_'
'clouds_'
'cleaning_'
'chemistry_'
'chauvinism_'
'centric_'
'bread_'
'borrower_'
'blackmail_'
'bidding_'
'belonging_'
'beaten_'
'banner_'
'b'
'apology_'
'anti'
'amend_'
'aides_'
'adversely_'
'Zhao_'
'X'
'Sunday_'
'Successful_'
'Strait_'
'Sin'
'Salman_'
'SI'
'Regulators_'
'Re_'
'Politburo_'
'Phelps_'
'Peña_'
'Pax_'
'Order_'
'Nieto_'
'Needless_'
'Natural_'
'Nasser_'
'Mitterrand_'
'Meeting_'
'Lower_'
'Libyans_'
'Island_'
'IF'
'IC'
'Himalayan_'
'Have_'
'HA'
'Guatemala_'
'Ensuring_'
'Count'
'CTBT_'
'Bu'
'Bre'
'Bin_'
'Bear_'
'Ambassador_'
'Alexis_'
'Advocates_'
'3D_'
'2100_'
'ö'
'­_'
'ys_'
'xed_'
'wings_'
'wi'
'welcoming_'
'wanting_'
'valuations_'
'valuation_'
'vain_'
'uns'
'unreasonable_'
'ung_'
'unease_'
'undergone_'
'ul'
'trickle_'
'thorough_'
'tertiary_'
'sustainably_'
'surprises_'
'supervisor_'
'ster_'
'stakeholder_'
'spillovers_'
'spaces_'
'socio_'
'smallest_'
'seriousness_'
'seated_'
'scratch_'
'rushed_'
'reserved_'
'renegotiation_'
'recurring_'
'punishing_'
'proxies_'
'provocation_'
'prospective_'
'processed_'
'pro'
'presided_'
'predicts_'
'periodically_'
'para'
'ouster_'
'occasional_'
'nya_'
'nutritional_'
'nominated_'
'neurons_'
'narrowing_'
'multi'
'mountains_'
'misplaced_'
'milk_'
'medieval_'
'mate_'
'massacres_'
'macroeconomics_'
'loopholes_'
'laborers_'
'kills_'
'ka'
'insurmountable_'
'insure_'
'installations_'
'incur_'
'inconceivable_'
'ial_'
'humanities_'
'hesitate_'
'ham_'
'hallmark_'
'genetics_'
'frontiers_'
'forecasters_'
'float_'
'fixes_'
'ffe'
'featured_'
'existent_'
'evaluating_'
'eu'
'epic_'
'entrants_'
'eased_'
'drastically_'
'downturns_'
'dogs_'
'dly_'
'distinctive_'
'dissolution_'
'discretion_'
'devalue_'
'detection_'
'denies_'
'delegates_'
'defaulted_'
'culprit_'
'corrected_'
'contrasts_'
'constituted_'
'consolidating_'
'compounds_'
'complications_'
'complacent_'
'communicable_'
'cling_'
'cing_'
'ching_'
'cervical_'
'burdensome_'
'brands_'
'biomass_'
'beset_'
'beggar_'
'battery_'
'attendance_'
'attain_'
'asks_'
'as'
'applicable_'
'adversary_'
'admiration_'
'accusing_'
'accuse_'
'accompanying_'
'abused_'
'[_'
'Zone_'
'X_'
'Wealth_'
'Tigers_'
'Survey_'
'Stream_'
'SA'
'Rowhani_'
'Princeton_'
'Pew_'
'P5_'
'Out'
'Orleans_'
'Often_'
'Nokia_'
'Nelson_'
'NASA_'
'Model_'
'Mayor_'
'Macri_'
'MELBOURNE_'
'Jeremy_'
'Institution_'
'Imperial_'
'El'
'Diet_'
'Dan'
'Chechen_'
'Bashir_'
'Bangkok_'
'As'
'Amid_'
'Alternative_'
'73_'
')?_'
'yuan_'
'wrenching_'
'woefully_'
'wire_'
'voiced_'
'vitally_'
'violates_'
'villagers_'
'ver_'
'variables_'
'unwarranted_'
'unnoticed_'
'ul_'
'ual_'
'tables_'
'surviving_'
'succumbed_'
'subsistence_'
'strip_'
'stoke_'
'spontaneous_'
'sits_'
'sion_'
'se'
'sacrificing_'
'robotics_'
'rift_'
'riding_'
'resurgent_'
'refers_'
'reelection_'
'reconciled_'
'reassured_'
'rd'
'radioactive_'
'r'
'quantum_'
'profligacy_'
'precedence_'
'por'
'planners_'
'permission_'
'parameters_'
'overlapping_'
'oo'
'observations_'
'neoliberal_'
'nasty_'
'mutualization_'
'muster_'
'mon'
'mismatch_'
'mentally_'
'lots_'
'liver_'
'li'
'lebih_'
'kingdom_'
'justifies_'
'ir_'
'intrusive_'
'interwar_'
'institutionalized_'
'inducing_'
'indoor_'
'inconvenient_'
'hood_'
'hollow_'
'hired_'
'hints_'
'heels_'
'harvest_'
'hair_'
'hackers_'
'ha_'
'grossly_'
'gangs_'
'fying_'
'footprint_'
'feeds_'
'failings_'
'empathy_'
'echo_'
'disrupting_'
'dictated_'
'density_'
'delusion_'
'database_'
'creditworthiness_'
'countercyclical_'
'constructing_'
'constitutions_'
'confirmation_'
'concentrations_'
'complexities_'
'communists_'
'clothes_'
'cigarettes_'
'car'
'capitalization_'
'bus_'
'bureaucracies_'
'bordering_'
'bla'
'band_'
'bailing_'
'atmospheric_'
'assisted_'
'assigned_'
'ard_'
'appointments_'
'analyzed_'
'aggravate_'
'abyss_'
'Zuma_'
'Youth_'
'Y_'
'Wolfgang_'
'UNICEF_'
'Terror_'
'Technological_'
'Strong_'
'Sheikh_'
'Sahel_'
'Ri'
'REDD_'
'Prices_'
'Populist_'
'Pearl_'
'Outside_'
'ODA_'
'Notwithstanding_'
'Ni'
'Mueller_'
'Mr_'
'Matteo_'
'Mart_'
'Learning_'
'Koran_'
'Kenyan_'
'Ju'
'JCPOA_'
'Independent_'
'Harbor_'
'Globally_'
'Ga'
'G7_'
'Electoral_'
'Dmitri_'
'Dis'
'Del'
'Dalai_'
'Curtain_'
'Conversely_'
'Bar'
'BBC_'
'Aung_'
'Arabic_'
'Amendment_'
'Al'
'78_'
'1956_'
'0s_'
'”'
'yearning_'
'ye'
'wished_'
'windfall_'
'website_'
'war'
'viewers_'
'videos_'
'update_'
'uniting_'
'undocumented_'
'uc'
'travails_'
'touted_'
'tourist_'
'threw_'
'tandem_'
'surgery_'
'substitution_'
'sto'
'stimulated_'
'spirits_'
'spawned_'
'sounding_'
'sized_'
'sins_'
'shi'
'sexually_'
'scramble_'
'scare_'
'satellites_'
'ruble_'
'retraining_'
'reshaping_'
'remarked_'
'references_'
'recruits_'
'reassert_'
'reaffirmed_'
'reaffirm_'
'raging_'
'protesting_'
'protein_'
'prohibiting_'
'preferential_'
'precondition_'
'precipitate_'
'pot_'
'planetary_'
'piecemeal_'
'passions_'
'partition_'
'pale_'
'palace_'
'painfully_'
'owning_'
'opens_'
'movies_'
'mi'
'maturities_'
'matches_'
'mas'
'lifelong_'
'liable_'
'levy_'
'legality_'
'lagged_'
'ko'
'invoke_'
'insured_'
'instrumental_'
'instantly_'
'inherit_'
'ing'
'inflow_'
'ines_'
'inclination_'
'incipient_'
'identifies_'
'ht'
'harming_'
'han'
'grandchildren_'
'glaring_'
'generalized_'
'frustrations_'
'fights_'
'fi'
'farmland_'
'fan_'
'extinction_'
'explored_'
'exemption_'
'exempt_'
'eternal_'
'espionage_'
'embarrassing_'
'egalitarian_'
'dispersed_'
'disinformation_'
'disaffected_'
'differentials_'
'diesel_'
'devising_'
'derives_'
'depletion_'
'delivers_'
'dea'
'councils_'
'consistency_'
'commanding_'
'commanders_'
'colleges_'
'cocaine_'
'cheating_'
'ch'
'celebrating_'
'campaigners_'
'bi'
'barring_'
'averted_'
'attest_'
'associate_'
'arbitrage_'
'app_'
'anticipation_'
'ameliorate_'
'allocating_'
'allegiance_'
'Yu'
'Whenever_'
'Wal_'
'Tel_'
'Take_'
'Sur'
'Stanley_'
'Saving_'
'Saud_'
'Samuelson_'
'SEC_'
'Ros'
'Raúl_'
'Ran'
'ROME_'
'R2P_'
'Province_'
'Pe'
'Pakistanis_'
'PPP_'
'Outlook_'
'Ob'
'Me'
'Kyrgyzstan_'
'Ku'
'Hundreds_'
'Hai'
'Gülenists_'
'Gi'
'Fre'
'Football_'
'ExxonMobil_'
'Elections_'
'Dominique_'
'Dick_'
'Deutsche_'
'Confucian_'
'Changing_'
'Ben'
'Bali_'
'Aviv_'
'Antarctic_'
'Americanism_'
'Accords_'
'69_'
'1932_'
'1900_'
'+ _'
'"_'
'á'
'worn_'
'workable_'
'wonderful_'
'weekend_'
'visas_'
'vindicated_'
'verification_'
'vegetables_'
'van'
'va'
'usly_'
'unsuccessful_'
'unpaid_'
'unnecessarily_'
'tracks_'
'tantamount_'
'sunlight_'
'subsidizing_'
'sub'
'striving_'
'stricken_'
'spa'
'sophistication_'
'si'
'shaky_'
'ro_'
'rife_'
'revelation_'
'revaluation_'
'restraints_'
'reshape_'
'reservations_'
'reputations_'
'repo_'
'remembering_'
'relates_'
'regaining_'
'ree'
'reconciling_'
'receipts_'
'ral_'
'que'
'pur'
'pumped_'
'prosecute_'
'pronouncements_'
'projection_'
'presumed_'
'plummet_'
'philosophical_'
'petition_'
'passengers_'
'palpable_'
'overtaken_'
'ore_'
'or'
'om_'
'observe_'
'nurturing_'
'nanotechnology_'
'monumental_'
'mo_'
'minerals_'
'mercantilist_'
'mer_'
'measles_'
'mayhem_'
'marking_'
'manufacturer_'
'mad_'
'loser_'
'laundering_'
'ki_'
'joke_'
'jobless_'
'intolerable_'
'intertwined_'
'institute_'
'inject_'
'horizons_'
'holdouts_'
'hesitant_'
'haircut_'
'gri'
'glimpse_'
'freeing_'
'fostered_'
'forbidden_'
'fend_'
'fallacy_'
'ethanol_'
'epicenter_'
'enacting_'
'electronics_'
'ele'
'dust_'
'diverted_'
'distorting_'
'disciplined_'
'deliberation_'
'crushed_'
'creators_'
'counterweight_'
'cotton_'
'conceivable_'
'complicate_'
'combustion_'
'coherence_'
'coexistence_'
'client_'
'clearinghouse_'
'churches_'
'charitable_'
'ceremony_'
'cation_'
'casting_'
'ca_'
'bur'
'brinkmanship_'
'boundary_'
'bles_'
'behaving_'
'bath'
'backbone_'
'attributes_'
'arrogant_'
'ancestors_'
'alignment_'
'ali'
'airlines_'
'affiliated_'
'advantageous_'
'accommodating_'
'Under'
'Tobin_'
'Ti'
'Structural_'
'Space_'
'Smart_'
'Single_'
'Shinawatra_'
'She'
'SGP_'
'Ro'
'Responsibility_'
'Rapid_'
'Protestant_'
'Progressive_'
'Pro'
'Press_'
'Pi'
'Petersburg_'
'Pervez_'
'PI'
'Official_'
'Nord_'
'Nehru_'
'Mu'
'Min'
'MEXICO_'
'Lincoln_'
'Lawrence_'
'Judging_'
'Investing_'
'Il_'
'Hun_'
'Hu'
'Holland_'
'Ha'
'Ge'
'Gamal_'
'Fe'
'External_'
'Donbas_'
'DENVER_'
'Christianity_'
'Chase_'
'Buffett_'
'Bra'
'Be'
'Bankers_'
'Assuming_'
'Armenian_'
'Ar'
'Angola_'
'Alternatively_'
'Allies_'
'93_'
'9'
'86_'
'76_'
'2º_'
'170_'
'125_'
'í'
'za_'
'wiser_'
'weighing_'
'warheads_'
'visitors_'
'usefulness_'
'unwise_'
'unfold_'
'umbrella_'
'turnaround_'
'tre'
'themes_'
'textiles_'
'ter'
'tepid_'
'supporter_'
'stockpile_'
'sti'
'statesmen_'
'spe'
'slipped_'
'slip_'
'sells_'
'satisfying_'
'sanctuary_'
'san'
'revitalize_'
'resorted_'
'residence_'
'renounce_'
'renaissance_'
'reliably_'
'releasing_'
'relaxed_'
'recruiting_'
'realistically_'
'ra'
'quell_'
'pul'
'prowess_'
'profligate_'
'proclaiming_'
'prisoner_'
'pop_'
'polluted_'
'pluralistic_'
'pile_'
'pi'
'philanthropy_'
'phasing_'
'paraphrase_'
'paradoxically_'
'pair_'
'ou'
'oni'
'oath_'
'ntly_'
'northeast_'
'nationally_'
'motivate_'
'moratorium_'
'morale_'
'modes_'
'migrate_'
'medication_'
'manufacture_'
'macroprudential_'
'loudly_'
'lighting_'
'letters_'
'l'
'knock_'
'kilograms_'
'j_'
'ition_'
'io'
'inviting_'
'invests_'
'investigating_'
'intrinsic_'
'interviews_'
'intermediation_'
'insulated_'
'insulate_'
'instructions_'
'injury_'
'indexed_'
'illegitimate_'
'hui_'
'honored_'
'honesty_'
'headway_'
'he'
'hacking_'
'grass_'
'graft_'
'gers_'
'garment_'
'forceful_'
'flourishing_'
'favorably_'
'fare_'
'faire_'
'es'
'envisioned_'
'endanger_'
'empires_'
'emi'
'ema'
'eligibility_'
'educating_'
'editor_'
'dragging_'
'dominating_'
'disturbances_'
'daring_'
'cutbacks_'
'curricula_'
'culminating_'
'critic_'
'cricket_'
'correcting_'
'contributors_'
'consultations_'
'confrontational_'
'clerics_'
'cks_'
'chairs_'
'centrality_'
'ce'
'cat_'
'bs_'
'bro'
'brake_'
'boycott_'
'bombed_'
'blog_'
'birthday_'
'benchmarks_'
'attained_'
'ates_'
'assurance_'
'aspiring_'
'apartment_'
'an'
'Zhu_'
'Wrong_'
'War'
'VAT_'
'Truth_'
'Taken_'
'Standing_'
'Solutions_'
'Scandinavia_'
'Sandy_'
'Regulatory_'
'Refugee_'
'Putting_'
'Promise_'
'Policies_'
'Palin_'
'Nu'
'Nicholas_'
'Nationalist_'
'NA'
'Monnet_'
'Mitchell_'
'Marxist_'
'Mag'
'MA'
'Kar'
'Islamism_'
'Hi'
'Har'
'Half_'
'Hague_'
'Growing_'
'Gold_'
'Different_'
'De'
'Confucianism_'
'CPI_'
'Basic_'
'BIS_'
'Angeles_'
'Albania_'
'Addis_'
'Access_'
'84_'
'8'
'$_'
' ­– _'
'  _'
'whoever_'
'wheat_'
'walked_'
'vs_'
'vivid_'
'vigor_'
'van_'
'untold_'
'unreliable_'
'unprepared_'
'unleashing_'
'underwater_'
'underinvestment_'
'uncompetitive_'
'ug'
'tru'
'tricky_'
'tribunals_'
'thwart_'
'therapeutic_'
'theorists_'
'theft_'
'terrifying_'
'tenets_'
'tapping_'
'tall_'
'stretched_'
'stoking_'
'stoked_'
'stigma_'
'steal_'
'stays_'
'startling_'
'speakers_'
'sinister_'
'sincere_'
'signatory_'
'shaking_'
'sch'
'scar'
'rupture_'
'respectable_'
'resentments_'
'reliability_'
'refinance_'
'redistribute_'
'recovers_'
'recalled_'
'randomized_'
'ramifications_'
'quoted_'
'puzzling_'
'psychiatric_'
'presenting_'
'preparedness_'
'preparations_'
'predatory_'
'po'
'plug_'
'philosophers_'
'pharmaceuticals_'
'perpetuate_'
'nsi'
'moribund_'
'monitors_'
'monetization_'
'mitigated_'
'merchandise_'
'mafia_'
'liberalize_'
'legacies_'
'lavish_'
'lame_'
'k'
'ja'
'ively_'
'item_'
'isolationist_'
'isolating_'
'inventory_'
'insignificant_'
'infants_'
'indefinite_'
'inde'
'impossibility_'
'ideologically_'
'hotels_'
'hor'
'hem'
'hectares_'
'har'
'hal'
'greener_'
'grace_'
'gifts_'
'frustrating_'
'frontline_'
'fracking_'
'fore'
'fingers_'
'fighter_'
'farmer_'
'fading_'
'exuberance_'
'exploded_'
'ery_'
'er'
'een_'
'ears_'
'earliest_'
'draconian_'
'down'
'directives_'
'detriment_'
'deferred_'
'dating_'
'dared_'
'cynicism_'
'cy'
'customary_'
'cult_'
'counteract_'
'continuously_'
'concession_'
'competitor_'
'comparatively_'
'clauses_'
'charm_'
'channeling_'
'challenger_'
'cannabis_'
'bio'
'binge_'
'beleaguered_'
'bay_'
'battling_'
'avoidable_'
'aspires_'
'approached_'
'appointing_'
'appeasement_'
'apathy_'
'advisory_'
'acknowledges_'
'accords_'
'Zionist_'
'Virginia_'
'Tra'
'Tillerson_'
'Support_'
'Solzhenitsyn_'
'Serbs_'
'Senegal_'
'Resistance_'
'Prior_'
'PBC_'
'Ol'
'Melinda_'
'Mad'
'Lord_'
'Limits_'
'LI'
'Khan_'
'Keqiang_'
'Juan_'
'Jr_'
'Jackson_'
'JPMorgan_'
'Interpol_'
'Indonesian_'
'Increased_'
'FDP_'
'Eurogroup_'
'Eurasian_'
'Emp'
'Ed'
'Developed_'
'Ci'
'Christine_'
'Chapter_'
'Bal'
'An'
'Ababa_'
'AR'
'87_'
'81_'
'24'
'1961_'
'1958_'
'1957_'
'1953_'
'1938_'
'14'
', "_'
'yn'
'ws_'
'whopping_'
'wea'
'warns_'
'violently_'
'vel'
'veil_'
'unforeseen_'
'underlies_'
'underdeveloped_'
'und_'
'uncontrolled_'
'unambiguous_'
'triggers_'
'timid_'
'tan'
'subordinate_'
'stored_'
'staunch_'
'starved_'
'stamp_'
'squeezed_'
'shots_'
'separating_'
'rti'
'revisions_'
'revert_'
'retrospect_'
'rested_'
'relate_'
'rehabilitation_'
'regained_'
'redundant_'
'recurrence_'
'rebuilt_'
'quarterly_'
'pretense_'
'poured_'
'pleased_'
'plane_'
'physicists_'
'persisted_'
'penetration_'
'pendulum_'
'partially_'
'paranoid_'
'paltry_'
'pa'
'overt_'
'organism_'
'occurrence_'
'neutrality_'
'murders_'
'monks_'
'microeconomic_'
'metropolitan_'
'metal_'
'mer'
'math_'
'marginalization_'
'logy_'
'lobbied_'
'lli'
'lens_'
'len'
'ko_'
'ironically_'
'ion'
'injustices_'
'injuries_'
'injected_'
'initiating_'
'infighting_'
'in'
'impartial_'
'illustrated_'
'hye_'
'hostilities_'
'heavier_'
'head'
'harmed_'
'groundbreaking_'
'greedy_'
'gravest_'
'grateful_'
'glaciers_'
'genomics_'
'gambling_'
'fri'
'foes_'
'flo'
'flames_'
'flags_'
'fied_'
'faded_'
'exodus_'
'evade_'
'ethically_'
'eri'
'eradicating_'
'ents_'
'enrolled_'
'enriching_'
'emotion_'
'eighth_'
'dried_'
'domains_'
'dogma_'
'dissident_'
'disconnect_'
'disabled_'
'dinner_'
'digitization_'
'differs_'
'deserved_'
'dengan_'
'definitely_'
'defects_'
'decreasing_'
'damages_'
'curtailing_'
'cur'
'crushing_'
'crown_'
'crowding_'
'correlated_'
'coral_'
'convertibility_'
'contemplating_'
'concluding_'
'complicity_'
'complaint_'
'compares_'
'coincided_'
'coffers_'
'chip_'
'childbirth_'
'chi_'
'changer_'
'cardiovascular_'
'caps_'
'cancel_'
'builders_'
'bri'
'bottle_'
'bother_'
'bonus_'
'blockade_'
'blatant_'
'betrayal_'
'beacon_'
'battered_'
'averse_'
'aspiration_'
'arithmetic_'
'analogies_'
'ak_'
'airspace_'
'abnormal_'
'ab'
'Worldwide_'
'Wi'
'Uzbekistan_'
'UBI_'
'Tusk_'
'Truman_'
'Trap_'
'Tor'
'Sun_'
'Stu'
'Soros_'
'So'
'Shi'
'STOCKHOLM_'
'Ru'
'Rim_'
'Ricardo_'
'Rajan_'
'RI'
'Previously_'
'Over'
'Navy_'
'Mugabe_'
'Members_'
'Medicine_'
'MP'
'Jonathan_'
'Joe_'
'Ivoire_'
'Increasingly_'
'Ideally_'
'Hard_'
'Hansen_'
'Ghraib_'
'Fu'
'Friedrich_'
'Federation_'
'Fannie_'
'ESDP_'
'Dollar_'
'Diplomacy_'
'Di'
'Deflation_'
'Daily_'
'Da'
'Commodity_'
'Cho'
'Charlie_'
'Ber'
'Barak_'
'Bachelet_'
'BRIC_'
'Arabian_'
'Alawite_'
'AfD_'
'Absent_'
'AN'
'AAA_'
'27'
'240_'
'22'
'21'
'19th_'
'186'
' — _'
'‘_'
'ys'
'wiped_'
'veterans_'
'varies_'
'v'
'unre'
'unravel_'
'underlie_'
'treats_'
'traced_'
'totaled_'
'thwarted_'
'terrain_'
'subsidiary_'
'stripped_'
'strapped_'
'stemmed_'
'sta'
'sorry_'
'slashing_'
'shark_'
'selecting_'
'sanctioned_'
'rubble_'
'riches_'
'respecting_'
'resorting_'
'resolute_'
'residual_'
'reply_'
'replaces_'
'relaxing_'
'redefine_'
'recommendation_'
'ras'
'pumping_'
'prohibits_'
'preliminary_'
'prefers_'
'pouring_'
'pledging_'
'pity_'
'pin_'
'pin'
'photos_'
'photo_'
'phases_'
'peacekeepers_'
'payoff_'
'patron_'
'overwhelm_'
'overs'
'oneself_'
'on'
'oc'
'objection_'
'nti'
'nerve_'
'muted_'
'municipalities_'
'mosques_'
'misuse_'
'mes_'
'megabanks_'
'meals_'
'me'
'mask_'
'load_'
'lessness_'
'lends_'
'legitimize_'
'leftists_'
'leak_'
'lawlessness_'
'ladder_'
'laboratories_'
'lab_'
'ki'
'jihadis_'
'ja_'
'ip'
'ional_'
'instinct_'
'inspectors_'
'insecure_'
'ingenuity_'
'inefficiencies_'
'inciting_'
'importer_'
'illustrate_'
'ida'
'hu'
'homogeneous_'
'hesitation_'
'heartland_'
'hampering_'
'hampered_'
'h'
'gu'
'gloomy_'
'geographically_'
'gar'
'fortunately_'
'forcibly_'
'fool_'
'fleet_'
'fiercely_'
'fascinating_'
'faiths_'
'exercising_'
'evening_'
'eruption_'
'erected_'
'environmentalists_'
'endangering_'
'emergencies_'
'electrical_'
'egg_'
'ear'
'drafting_'
'dot_'
'dormant_'
'dom_'
'distract_'
'discounted_'
'disclose_'
'dimensional_'
'dies_'
'destabilization_'
'depths_'
'dealings_'
'dari_'
'dairy_'
'curiosity_'
'cumbersome_'
'cultivated_'
'consulted_'
'consensual_'
'con'
'cleared_'
'cla'
'ck'
'cigarette_'
'chips_'
'cherished_'
'characterizes_'
'chancellor_'
'celebrations_'
'cares_'
'buttress_'
'bully_'
'brokers_'
'brighter_'
'breath_'
'bottlenecks_'
'blunder_'
'belonged_'
'behaved_'
'bankruptcies_'
'bang_'
'ballots_'
'awash_'
'atrocity_'
'arrests_'
'appreciating_'
'appearances_'
'and'
'analyst_'
'ai_'
'admittedly_'
'WWI_'
'Vietnamese_'
'Vegas_'
'Understanding_'
'UNESCO_'
'Tre'
'Trading_'
'Target_'
'Stern_'
'Srebrenica_'
'Sisi_'
'Sergei_'
'Save_'
'SCAF_'
'Rule_'
'Romanian_'
'Rodrik_'
'Reconstruction_'
'Put_'
'Productivity_'
'Population_'
'Pennsylvania_'
'PA'
'Nuremberg_'
'Norwegian_'
'Network_'
'Namibia_'
'Media_'
'MI'
'Ken_'
'Kabul_'
'Jordanian_'
'Ja'
'Indi'
'Improving_'
'Hindus_'
'Higgs_'
'Hawaii_'
'Happiness_'
'Han'
'Hamid_'
'HPV_'
'Governors_'
'Fo'
'Fifty_'
'Emperor_'
'Elizabeth_'
'Economies_'
'Delta_'
'Competition_'
'Commerce_'
'Cle'
'Che'
'Char'
'CDF_'
'Breaking_'
'Brazilians_'
'Blue_'
'Bismarck_'
'Benghazi_'
'BO'
'Assistance_'
'Ash'
'50th_'
'1964_'
'…._'
'www_'
'workings_'
'weekly_'
'warmer_'
'visibly_'
'virulent_'
'vigilant_'
'vable_'
'usher_'
'unsettled_'
'unfavorable_'
'unelected_'
'twi'
'truths_'
'trilateral_'
'transparently_'
'tragedies_'
'traffickers_'
'tolerable_'
'to'
'tilted_'
'the'
'termed_'
'technique_'
'tear_'
'te'
'taxable_'
'syndrome_'
'supervisors_'
'summary_'
'strikingly_'
'stri'
'stranger_'
'stewardship_'
'stereotypes_'
'so'
'smallholder_'
'slipping_'
'slave_'
'sla'
'sixteenth_'
'sharper_'
'shallow_'
'shadows_'
'script_'
'scored_'
'romantic_'
'rit'
'risked_'
'rings_'
'revolts_'
'revising_'
'retribution_'
'restart_'
'respiratory_'
'reside_'
'renegotiate_'
'remotely_'
'reasoned_'
'reactionary_'
'reacting_'
'raid_'
'pushes_'
'proverbial_'
'proudly_'
'proclaim_'
'presumptive_'
'presumption_'
'pressured_'
'prescribed_'
'premia_'
'pping_'
'posted_'
'pornography_'
'poisoned_'
'plurality_'
'piracy_'
'peso_'
'perpetuating_'
'perdagangan_'
'packed_'
'outer_'
'ot'
'os'
'org_'
'orbit_'
'ora'
'nicotine_'
'nexus_'
'mor'
'mono'
'monarchies_'
'modeled_'
'mit'
'maize_'
'lu'
'lifeline_'
'liberate_'
'libel_'
'lessly_'
'lackluster_'
'junk_'
'ir'
'intransigence_'
'intermediaries_'
'inte'
'insult_'
'inspection_'
'insiders_'
'inception_'
'inaccurate_'
'imperialist_'
'impeachment_'
'illegally_'
'idly_'
'ica'
'hydrocarbons_'
'hinges_'
'gun'
'guest_'
'gra'
'gestures_'
'gates_'
'freshwater_'
'fosters_'
'flip_'
'ff'
'fertilizers_'
'facilitates_'
'expelled_'
'essay_'
'erodes_'
'entrance_'
'entailed_'
'energetic_'
'enclaves_'
'employs_'
'edly_'
'editors_'
'edition_'
'echoed_'
'eb'
'dro'
'drink_'
'dress_'
'distracted_'
'dismantled_'
'disengagement_'
'directing_'
'deprive_'
'depress_'
'deposed_'
'dent_'
'degraded_'
'deduction_'
'criticisms_'
'crazy_'
'crafting_'
'cows_'
'coping_'
'convictions_'
'converting_'
'contractors_'
'contractionary_'
'contender_'
'commissioner_'
'clinic_'
'clan_'
'ceased_'
'calories_'
'cage_'
'by'
'bury_'
'bull_'
'buffers_'
'boring_'
'bling_'
'bleeding_'
'besides_'
'bedrock_'
'batteries_'
'backers_'
'attracts_'
'at'
'associates_'
'assaults_'
'assassinated_'
'ars_'
'ara'
'appealed_'
'ana'
'affirmative_'
'adhering_'
'adept_'
'ad'
'acupuncture_'
'accommodative_'
'abundantly_'
'abolition_'
'Z_'
'Watanabe_'
'Vo'
'Venezuelans_'
'VIENNA_'
'Theory_'
'TH'
'Strauss_'
'Stearns_'
'Starting_'
'Siberia_'
'Si'
'Sho'
'Pur'
'Principles_'
'Populists_'
'Operation_'
'Officials_'
'NCD_'
'My'
'Michigan_'
'Marxism_'
'Mae_'
'Line_'
'Laos_'
'Kadima_'
'Jeffrey_'
'JPM_'
'Internal_'
'Individuals_'
'Humala_'
'Gra'
'Goal_'
'Geun_'
'Gender_'
'Fin'
'Fillon_'
'Excessive_'
'Dec'
'Dawn_'
'DA'
'Côte_'
'Consumers_'
'Cha'
'Camp_'
'Cambridge_'
'BNP_'
'Also_'
'Advisers_'
'Accordingly_'
'92_'
'71_'
'6'
'30'
'1966_'
'1951_'
'1946_'
'1936_'
' -- _'
'weren_'
'vitamin_'
'utmost_'
'ut_'
'upturn_'
'unsettling_'
'unlock_'
'unipolar_'
'unequivocally_'
'tur'
'travelers_'
'totalitarianism_'
'toppling_'
'thrust_'
'teaches_'
'tar_'
'taper_'
'tag_'
'sue_'
'substances_'
'strategists_'
'static_'
'standstill_'
'stagflation_'
'solvent_'
'soldier_'
'slim_'
'shoulders_'
'shing_'
'semblance_'
'segregation_'
'securitization_'
'schoolchildren_'
'scarcely_'
'saga_'
'sadness_'
'sacrificed_'
'rum'
'rubber_'
'rosy_'
'revisionist_'
'rethinking_'
'restrained_'
'restive_'
'repressed_'
'renowned_'
'relegated_'
'recommends_'
'realignment_'
'rationing_'
'qualifications_'
'qua'
'q_'
'proceeding_'
'probable_'
'principled_'
'pri'
'prey_'
'positioning_'
'pools_'
'polluting_'
'pointless_'
'pocket_'
'pioneered_'
'physician_'
'personalities_'
'pegged_'
'parliamentarians_'
'pan'
'overthrown_'
'overtake_'
'overseeing_'
'overlap_'
'overblown_'
'ote'
'offenses_'
'odious_'
'occupational_'
'nutrients_'
'normalcy_'
'newest_'
'neuro'
'nd'
'modify_'
'misunderstanding_'
'methane_'
'medications_'
'manifestations_'
'males_'
'lt'
'listened_'
'liberalized_'
'lauded_'
'lasts_'
'laissez_'
'knowhow_'
'knees_'
'kidney_'
'ji'
'jeopardized_'
'irre'
'insurgent_'
'instituted_'
'inspections_'
'incursion_'
'illusory_'
'iles_'
'ik'
'ide'
'harmonious_'
'happier_'
'hang_'
'halving_'
'gut_'
'fre'
'fifths_'
'ff_'
'fetched_'
'fences_'
'exposes_'
'evenly_'
'esteem_'
'enlarged_'
'eni'
'enforceable_'
'endowed_'
'email_'
'em_'
'elephant_'
'elementary_'
'ela'
'dynastic_'
'drafted_'
'divine_'
'disguised_'
'dictum_'
'destroys_'
'denounce_'
'deli'
'deaf_'
'dalam_'
'cyclically_'
'curtailed_'
'crush_'
'credibly_'
'cra'
'cor'
'contradicts_'
'contra'
'consist_'
'conquest_'
'complicit_'
'comeback_'
'colossal_'
'cohort_'
'climbed_'
'chronically_'
'childcare_'
'centralization_'
'catastrophes_'
'businesspeople_'
'bu'
'bribery_'
'breathing_'
'breathe_'
'bra'
'boast_'
'berg_'
'be'
'await_'
'astounding_'
'assertions_'
'arisen_'
'ants_'
'amenable_'
'allocations_'
'ality_'
'ailing_'
'adventure_'
'administer_'
'abduction_'
'Ze'
'Your_'
'YouTube_'
'Wolfensohn_'
'Watch_'
'Various_'
'Uni'
'Unable_'
'Traditionally_'
'Tajikistan_'
'Sykes_'
'Solar_'
'Sichuan_'
'Seven_'
'Scientific_'
'Rules_'
'Rap'
'Q'
'Proponents_'
'Point_'
'Piñera_'
'Picot_'
'Pen'
'Pashtun_'
'Pan'
'PE'
'Ordinary_'
'Naturally_'
'NE'
'Missile_'
'Michelle_'
'Mc'
'Mauritius_'
'Malaysian_'
'Malawi_'
'Maintaining_'
'Ma_'
'Living_'
'Las_'
'La_'
'Ki'
'Kahn_'
'Ji'
'Islamabad_'
'Individual_'
'Increasing_'
'In'
'Hiroshima_'
'Gen'
'Forward_'
'Fi'
'Euro'
'Eichengreen_'
'Dwight_'
'Diaoyu_'
'DSM_'
'Corps_'
'Conventional_'
'Colonel_'
'Closing_'
'Chilean_'
'Carl_'
'CRA_'
'CDS_'
'Brookings_'
'Bri'
'Behind_'
'Bas'
'Ariel_'
'Aquino_'
'Abraham_'
': '
'91_'
'1963_'
'1940s_'
'·&#_'
'zi'
'yan_'
'wondered_'
'vity_'
'visionary_'
'viral_'
'vi'
'veness_'
've'
'utilization_'
'ushered_'
'unused_'
'unmistakable_'
'unfunded_'
'undue_'
'undo_'
'unconscious_'
'unaffordable_'
'twins_'
'turnover_'
'tumultuous_'
'tumors_'
'trucks_'
'truce_'
'ton'
'tation_'
'switched_'
'sweep_'
'superficial_'
'submission_'
'strings_'
'stranded_'
'statesman_'
'standardized_'
'sorely_'
'slope_'
'slash_'
'sizes_'
'simplest_'
'sen_'
'screens_'
'salt_'
'sacked_'
'rulings_'
'ruins_'
'rigidities_'
'ria'
'remark_'
'relocation_'
'reestablish_'
'reckon_'
'publicity_'
'protagonists_'
'prophecy_'
'programming_'
'privatize_'
'princes_'
'predictably_'
'practicing_'
'ponder_'
'policemen_'
'pluralist_'
'plunging_'
'particle_'
'paradoxical_'
'overseen_'
'omi'
'oi'
'objected_'
'obese_'
'ns'
'ners_'
'natives_'
'muscular_'
'monuments_'
'minus_'
'militarism_'
'mighty_'
'menace_'
'mediation_'
'medals_'
'mattered_'
'mastery_'
'mantle_'
'man'
'madness_'
'laudable_'
'lam'
'ium_'
'ite_'
'istic_'
'inventories_'
'invent_'
'intuitive_'
'intentioned_'
'intentionally_'
'intangible_'
'injection_'
'ini'
'inflate_'
'impressed_'
'ication_'
'hypothetical_'
'hypocritical_'
'hing_'
'hindsight_'
'hinder_'
'hijacked_'
'hierarchical_'
'heterodox_'
'hazardous_'
'hat'
'harms_'
'harbor_'
'halfway_'
'gro'
'graduation_'
'grabbing_'
'gging_'
'gen'
'fun_'
'frightened_'
'fray_'
'formulating_'
'flights_'
'firsthand_'
'fa'
'exorbitant_'
'estimating_'
'erect_'
'equations_'
'emitters_'
'dwindling_'
'duck_'
'divestment_'
'divergences_'
'distributing_'
'dissolve_'
'dismissing_'
'dge'
'detected_'
'denuclearization_'
'defied_'
'decarbonization_'
'dashed_'
'cruelty_'
'credited_'
'copyright_'
'copies_'
'contaminated_'
'consisting_'
'concentrating_'
'coins_'
'closure_'
'chicken_'
'checking_'
'carrier_'
'bouts_'
'bolder_'
'blo'
'bi_'
'beside_'
'awkward_'
'ata'
'anybody_'
'anticipating_'
'anew_'
'amp'
'amnesty_'
'alle'
'aligning_'
'alien_'
'alarmed_'
'administrators_'
'adamant_'
'Yar_'
'Wolf_'
'Viewed_'
'Up'
'Study_'
'Slovenia_'
'San'
'Sam_'
'SS'
'Researchers_'
'Reforms_'
'Realpolitik_'
'Qui'
'Process_'
'Prevention_'
'Presidential_'
'Petroleum_'
'Peoples_'
'Paulson_'
'PKK_'
'Os'
'Orwell_'
'Opposition_'
'Obrador_'
'Nicolás_'
'Negotiations_'
'Nation_'
'Nairobi_'
'Moral_'
'Mor'
'Mill_'
'Mi'
'Maoist_'
'Maghreb_'
'Mac_'
'Look_'
'Leading_'
'Kon'
'Khmer_'
'Ke'
'Journalists_'
'Janeiro_'
'Hy'
'Holy_'
'Hal'
'Guangdong_'
'Greenland_'
'Go_'
'Gini_'
'FDIC_'
'Evidence_'
'Ei'
'Des'
'CALIFORNIA_'
'Bangladeshi_'
'BRICs_'
'Arr'
'Ana'
'Allowing_'
'Albert_'
'Adua_'
'AG'
'61_'
'60th_'
'31'
'28'
'20th_'
'2'
'1965_'
'1939_'
'.'
' #_'
'youngest_'
'yl'
'x'
'wound_'
'verbal_'
'vendors_'
'upgraded_'
'untapped_'
'unruly_'
'unequivocal_'
'undone_'
'undertook_'
'uncovered_'
'ture_'
'tuition_'
'thank_'
'terribly_'
'tarnished_'
'tame_'
'swa'
'supplemented_'
'sued_'
'sticks_'
'starve_'
'ssi'
'someday_'
'slightest_'
'skyrocketing_'
'simplicity_'
'sim'
'sights_'
'shapes_'
'scientifically_'
'sadly_'
'runaway_'
'rio'
'riddled_'
'republican_'
'replicate_'
'relax_'
'reining_'
'reformer_'
'rallying_'
'raft_'
'qa'
'pronged_'
'progressed_'
'proc'
'premiership_'
'prec'
'pounds_'
'post'
'possessing_'
'pic'
'persecuted_'
'pernicious_'
'permissible_'
'perils_'
'pen'
'pathogens_'
'passport_'
'parochial_'
'pal'
'oy'
'oxygen_'
'overstated_'
'outrageous_'
'outraged_'
'onward_'
'onerous_'
'ol'
'offline_'
'nta'
'ngly_'
'negotiator_'
'nda'
'mutation_'
'murky_'
'muddled_'
'mu'
'motto_'
'mosquitoes_'
'mi_'
'mel'
'materialized_'
'mat'
'marched_'
'managerial_'
'mail_'
'lung_'
'livelihood_'
'lined_'
'leveled_'
'les'
'legalization_'
'lamented_'
'la'
'ket'
'jeopardy_'
'ise_'
'irresistible_'
'inventions_'
'invade_'
'interventionist_'
'interlocutors_'
'interbank_'
'inhibit_'
'incitement_'
'inaugural_'
'hydrogen_'
'humility_'
'hs_'
'hook_'
'hint_'
'hard'
'glass_'
'gate_'
'gang_'
'furious_'
'files_'
'feminism_'
'fantasies_'
'externally_'
'exits_'
'exceedingly_'
'espoused_'
'envision_'
'enmity_'
'engages_'
'emitted_'
'embryos_'
'embraces_'
'emboldened_'
'elegant_'
'electrification_'
'drowning_'
'doubted_'
'distortion_'
'displays_'
'displace_'
'discrepancy_'
'diminishes_'
'dim_'
'diamonds_'
'determinants_'
'depriving_'
'denouncing_'
'denomination_'
'deleverage_'
'dan'
'cured_'
'cting_'
'crony_'
'crippled_'
'crashed_'
'conserve_'
'conglomerates_'
'conditioning_'
'communiqué_'
'commercially_'
'commemorate_'
'column_'
'colors_'
'collision_'
'collaborating_'
'coin_'
'coefficient_'
'classrooms_'
'cattle_'
'cartel_'
'captures_'
'calculating_'
'ca'
'bypass_'
'bursting_'
'broadened_'
'brightest_'
'breaches_'
'boldly_'
'bluntly_'
'bigotry_'
'betrayed_'
'bank'
'averting_'
'autocracies_'
'auto'
'auspices_'
'attackers_'
'ative_'
'appease_'
'apologies_'
'antiretroviral_'
'amplified_'
'amazing_'
'allure_'
'algorithms_'
'airstrikes_'
'ah'
'afterwards_'
'afloat_'
'af'
'adventures_'
'admits_'
'acutely_'
'acknowledgement_'
'abiding_'
'Zardari_'
'Yitzhak_'
'Yahoo_'
'Xiaobo_'
'Wo'
'WikiLeaks_'
'Weapons_'
'Waziristan_'
'Tribunal_'
'Traditional_'
'Total_'
'Threat_'
'Thousands_'
'Ten'
'Sudanese_'
'Sputnik_'
'Sor'
'Sha'
'Sein_'
'SNP_'
'SHANGHAI_'
'Rouge_'
'Queen_'
'Providing_'
'Populism_'
'Popular_'
'PR'
'PC_'
'Opponents_'
'Nationalism_'
'Mekong_'
'Lady_'
'Kha'
'Jai'
'IRGC_'
'Hill_'
'Hay'
'Geo'
'GA'
'Fundamental_'
'Full_'
'Fighting_'
'Exchequer_'
'Euroskeptics_'
'Eight_'
'Dr_'
'Down_'
'Deep_'
'Cutting_'
'Cruz_'
'Cro'
'Cristina_'
'Confidence_'
'Coast_'
'Catalan_'
'Cap'
'Budapest_'
'Brezhnev_'
'Bloomberg_'
'Berkeley_'
'Belgian_'
'Arms_'
'Ahmedinejad_'
'Advanced_'
'ACA_'
'AC'
'2040_'
'2022_'
'1919_'
'18th_'
'189'
'00_'
'zo'
'zen'
'zeal_'
'yi'
'worship_'
'whi'
'wasting_'
'ville_'
'velocity_'
'ut'
'up'
'unwinding_'
'unwelcome_'
'unta'
'unsure_'
'unsu'
'unproductive_'
'unfounded_'
'une'
'unanimity_'
'tsunamis_'
'trumped_'
'trips_'
'tricks_'
'transmit_'
'toolkit_'
'token_'
'th'
'temptations_'
'tempered_'
'tastes_'
'symbolism_'
'swaths_'
'sur'
'suggestions_'
'storing_'
'stomach_'
'spilled_'
'smugglers_'
'smokers_'
'simmering_'
'shook_'
'sealed_'
'salvation_'
'ru'
'rou'
'ric'
'ret'
'reset_'
'relocate_'
'rec'
'rea'
'radar_'
'psychologists_'
'propping_'
'probabilities_'
'privatized_'
'primaries_'
'preemptive_'
'preclude_'
'pope_'
'pooling_'
'pollutants_'
'poison_'
'plutonium_'
'peasant_'
'pe'
'paving_'
'paint_'
'overestimated_'
'overestimate_'
'outsider_'
'outflow_'
'oro'
'ordering_'
'oning_'
'ologists_'
'no'
'nevertheless_'
'neglecting_'
'nary_'
'narrower_'
'na'
'mus'
'mundane_'
'multitude_'
'migrated_'
'merging_'
'men'
'mechanical_'
'mayors_'
'marginally_'
'mandarins_'
'malign_'
'lowers_'
'loc'
'lin_'
'licensing_'
'levied_'
'legitimized_'
'lecture_'
'league_'
'lament_'
'kha'
'kan'
'jargon_'
'ites_'
'intuition_'
'incoherent_'
'incendiary_'
'implausible_'
'ik_'
'ible_'
'hydrocarbon_'
'hurts_'
'hunt_'
'holder_'
'hn'
'hi_'
'hens_'
'hemisphere_'
'heal_'
'hat_'
'hangs_'
'hal_'
'ha'
'gon'
'gigantic_'
'genomes_'
'generously_'
'fy_'
'frenzy_'
'framing_'
'foresight_'
'footsteps_'
'fester_'
'feeble_'
'fe'
'fateful_'
'fatally_'
'fanfare_'
'extravagant_'
'exploding_'
'exacerbates_'
'evolves_'
'evaluated_'
'evacuation_'
'electing_'
'educators_'
'echoes_'
'donated_'
'documentary_'
'disregarded_'
'disillusioned_'
'disconnected_'
'discomfort_'
'disclosed_'
'directive_'
'diamond_'
'diagnostics_'
'diagnoses_'
'destabilized_'
'derivative_'
'derailed_'
'den_'
'demo'
'deepens_'
'databases_'
'dar'
'cted_'
'cracking_'
'counterbalance_'
'corrosive_'
'contamination_'
'contagious_'
'conceal_'
'commons_'
'commonplace_'
'commands_'
'clerical_'
'che'
'centerpiece_'
'cede_'
'captive_'
'buck_'
'broadcasting_'
'breeds_'
'breed_'
'bone_'
'boil_'
'bode_'
'blows_'
'blowing_'
'blanket_'
'bitterly_'
'bel'
'backsliding_'
'awakening_'
'aw'
'auction_'
'atic_'
'ati'
'asi'
'apt_'
'antitrust_'
'antipathy_'
'amo'
'airline_'
'ag'
'afflicting_'
'admire_'
'adequacy_'
'adaptive_'
'acquiescence_'
'abducted_'
'Woodrow_'
'Weber_'
'Weak_'
'Violence_'
'Ver'
'Va'
'Urban_'
'Top_'
'Tan'
'Steve_'
'Spending_'
'Somali_'
'Sharia_'
'Senior_'
'SA_'
'Res'
'Renaissance_'
'Rajapaksa_'
'Pu'
'Prophet_'
'Pre'
'Philippine_'
'Paulo_'
'Path_'
'Particularly_'
'Par'
'New'
'Nawaz_'
'NAM_'
'Montreal_'
'Minsk_'
'Men_'
'Mari'
'MDG_'
'Luther_'
'Lost_'
'Lima_'
'Leviathan_'
'Level_'
'Lam'
'Lack_'
'Kerala_'
'Ivan_'
'IS'
'INDCs_'
'Housing_'
'Hole_'
'Good'
'Geithner_'
'Geert_'
'Forty_'
'Felipe_'
'Farage_'
'Far'
'Facing_'
'Euroskeptic_'
'Emergency_'
'ECT_'
'Dia'
'DAVOS_'
'Crown_'
'Condoleezza_'
'Comey_'
'Col'
'CAPE_'
'Bou'
'Bio'
'Benjamin_'
'At'
'App'
'Antarctica_'
'Ankara_'
'Americana_'
'Alzheimer_'
'Ak'
'Abdul_'
'AF'
'96_'
'79_'
')_'
'’'
'ü'
'yawning_'
'wreak_'
'wle'
'whatsoever_'
'wedge_'
'watchdog_'
'wane_'
'wal'
'victors_'
'victor_'
'variants_'
'upsurge_'
'unfamiliar_'
'unen'
'und'
'ult'
'ue_'
'tweets_'
'tribute_'
'tribe_'
'treatable_'
'treason_'
'tidak_'
'termism_'
'tering_'
'tentative_'
'tectonic_'
'tears_'
'teachings_'
'tea'
'sworn_'
'swimming_'
'swath_'
'sus'
'surrogacy_'
'supra_'
'sunk_'
'sufficiency_'
'submarines_'
'structurally_'
'strongmen_'
'strangers_'
'stiff_'
'statist_'
'startup_'
'sporting_'
'spo'
'sow_'
'somebody_'
'sobering_'
'sno'
'shortcoming_'
'sexuality_'
'senses_'
'sco'
'satisfactory_'
'sanction_'
'resumed_'
'respite_'
'resonance_'
'resent_'
'rescuing_'
'replicated_'
'replete_'
'repairing_'
'remainder_'
'relinquish_'
'religiously_'
'reinvent_'
'reformists_'
'refined_'
'reefs_'
'recording_'
'recapture_'
'recalling_'
'reaping_'
'rationality_'
'publics_'
'pu'
'pse'
'protested_'
'proprietary_'
'propped_'
'proportional_'
'prominently_'
'prohibitively_'
'procedural_'
'preconditions_'
'postponing_'
'portable_'
'ple'
'plainly_'
'philanthropic_'
'persuasion_'
'pent_'
'paternalism_'
'pariah_'
'painted_'
'overthrew_'
'overriding_'
'outdoor_'
'originate_'
'oppressed_'
'op'
'occupies_'
'noise_'
'nitrogen_'
'newer_'
'neutralize_'
'neatly_'
'naked_'
'museum_'
'multiply_'
'muddling_'
'mouth_'
'mosque_'
'mortal_'
'mold_'
'modestly_'
'mockery_'
'mob_'
'mistakenly_'
'miscalculation_'
'mirrors_'
'millennium_'
'microbes_'
'measurements_'
'meal_'
'maturing_'
'masked_'
'ly'
'loosely_'
'localized_'
'liquidate_'
'leprosy_'
'legs_'
'leg_'
'lease_'
'keys_'
'ke'
'jury_'
'issuers_'
'irrelevance_'
'investigated_'
'intimate_'
'interconnectedness_'
'insurrection_'
'inspires_'
'insidious_'
'ingrained_'
'indiscriminate_'
'indicted_'
'impulses_'
'impotence_'
'illiterate_'
'ight_'
'iconic_'
'ian'
'hyperinflation_'
'hydropower_'
'humankind_'
'hostages_'
'home'
'holistic_'
'hinted_'
'hei'
'hedging_'
'heady_'
'hamper_'
'grandfather_'
'grabs_'
'gor'
'ght_'
'ger'
'geostrategic_'
'fury_'
'fraudulent_'
'forego_'
'fishermen_'
'firepower_'
'fic'
'fiber_'
'featuring_'
'expropriation_'
'expedient_'
'expansive_'
'ew'
'ethic_'
'err'
'equip_'
'eo'
'emotionally_'
'emitting_'
'eminent_'
'em'
'editorial_'
'easiest_'
'ea'
'dra'
'diverting_'
'dissolved_'
'dispatched_'
'dislike_'
'disguise_'
'discovering_'
'discarded_'
'disadvantages_'
'dip'
'diffuse_'
'deterring_'
'deliberations_'
'defying_'
'custody_'
'cronyism_'
'counter'
'corrections_'
'conquer_'
'conjunction_'
'confrontations_'
'confidently_'
'collusion_'
'cleric_'
'chorus_'
'chi'
'checked_'
'check'
'causal_'
'carriers_'
'captain_'
'calibrated_'
'cake_'
'burg_'
'brick_'
'breakout_'
'blessed_'
'births_'
'bin'
'ber_'
'bend_'
'bastion_'
'bal'
'attests_'
'ath_'
'asymmetry_'
'assemble_'
'arr'
'ar'
'applicants_'
'applauded_'
'anathema_'
'amended_'
'ama'
'altruistic_'
'al'
'airplane_'
'agony_'
'advise_'
'adulthood_'
'adolescents_'
'achieves_'
'absorption_'
'a'
'Xilai_'
'Was'
'Wang_'
'Van_'
'UAE_'
'Tuberculosis_'
'Troika_'
'TFP_'
'TA_'
'Super'
'Sun'
'Sub'
'Song_'
'Sol'
'Skeptics_'
'Sixth_'
'Shell_'
'Sand'
'Saint_'
'Sa'
'Rosneft_'
'Restoring_'
'Remain_'
'Relief_'
'Pyongyang_'
'Politically_'
'Pinochet_'
'Opportunity_'
'Ohio_'
'Nan'
'NEWPORT_'
'ND'
'Member_'
'Mars_'
'Mac'
'MP_'
'Leung_'
'Len'
'Leaving_'
'Job_'
'Inácio_'
'Hunger_'
'Horn_'
'Hoover_'
'Homo_'
'Hariri_'
'HE'
'Grillo_'
'Greens_'
'Green'
'Gas_'
'Gar'
'Gallup_'
'GOP_'
'GF'
'G8_'
'Ford_'
'Flynn_'
'Fair_'
'Es'
'Electric_'
'ET'
'Detroit_'
'Den'
'Cyber_'
'Chad_'
'Carlos_'
'Cancer_'
'Ca'
'CS'
'CA'
'Borders_'
'Az'
'Avoiding_'
'Asset_'
'Apparently_'
'Albanian_'
'Ala'
'Ahmed_'
'Afghans_'
'AS'
'AL'
'1941_'
'1937_'
'1920s_'
'190_'
'183'
'182'
'15'
'13th_'
', '
'és_'
'É'
'workforces_'
'withhold_'
'wipe_'
'whales_'
'websites_'
'weary_'
'void_'
'vis'
'veteran_'
'vanish_'
'val'
'utopian_'
'untr'
'untested_'
'unsurprising_'
'unstoppable_'
'uni'
'underpinnings_'
'unchallenged_'
'uit'
'tz_'
'traces_'
'trace_'
'toughest_'
'tou'
'tiger_'
'ti_'
'thumb_'
'throes_'
'thinker_'
'thesis_'
'textile_'
'telecoms_'
'teenagers_'
'tea_'
'taboos_'
'supplements_'
'superstar_'
'superpowers_'
'stunted_'
'stunned_'
'stubborn_'
'streams_'
'stifled_'
'steering_'
'stationed_'
'starving_'
'stagnate_'
'sourcing_'
'sour_'
'sounded_'
'souls_'
'socialization_'
'sliding_'
'similarity_'
'silenced_'
'shipped_'
'seminal_'
'sections_'
'sect_'
'seal_'
'scu'
'scattered_'
'saves_'
'sabotage_'
'runoff_'
'rs'
'rl'
'rigidity_'
'rie'
'retaliate_'
'restructurings_'
'resonates_'
'resettlement_'
'repu'
'repa'
'renunciation_'
'ren'
'remorse_'
'reluctantly_'
'relaxation_'
'relapse_'
'redefined_'
'rectitude_'
'reclaim_'
'recalcitrant_'
'read'
'rallies_'
'q'
'pt'
'proceeded_'
'primitive_'
'prestigious_'
'precipitously_'
'pour_'
'postcommunist_'
'poisonous_'
'pet'
'personalized_'
'peri'
'pe_'
'pathways_'
'patented_'
'pardon_'
'paranoia_'
'paralyzing_'
'packaged_'
'pack_'
'orm'
'orchestrated_'
'ona'
'od'
'obscured_'
'ny_'
'nted_'
'novelist_'
'myths_'
'mysterious_'
'murderer_'
'multipliers_'
'modicum_'
'misconduct_'
'mightily_'
'meritocracy_'
'meng'
'mechanics_'
'manpower_'
'malicious_'
'lords_'
'llo'
'literate_'
'library_'
'lever_'
'lectures_'
'lea'
'layers_'
'largesse_'
'krill_'
'kar_'
'justifying_'
'jo'
'jihadism_'
'je'
'investigative_'
'invasive_'
'intellectually_'
'inmates_'
'informally_'
'inextricably_'
'iness_'
'inescapable_'
'if'
'ici'
'iceberg_'
'hype_'
'hovering_'
'hormone_'
'hopelessness_'
'hle'
'hitherto_'
'heroin_'
'heralded_'
'heir_'
'headscarf_'
'harmonize_'
'handouts_'
'grapple_'
'graph_'
'governs_'
'genocidal_'
'geared_'
'galvanize_'
'fulness_'
'fracturing_'
'forgiven_'
'flu'
'flexing_'
'fixated_'
'fitting_'
'fitness_'
'firewall_'
'fervent_'
'fats_'
'fanatics_'
'fanatical_'
'facilitation_'
'facile_'
'eyed_'
'extensively_'
'expulsion_'
'expresses_'
'exiled_'
'execute_'
'eta'
'est'
'eradicated_'
'equitably_'
'enthusiastically_'
'ens'
'endlessly_'
'encounters_'
'emptive_'
'eme'
'embroiled_'
'emails_'
'ef_'
'earthquakes_'
'dreamed_'
'distorts_'
'disillusion_'
'disagreed_'
'despotic_'
'des'
'deprivation_'
'decoupling_'
'dealers_'
'cracks_'
'countered_'
'controversies_'
'contractual_'
'continents_'
'consisted_'
'congress_'
'confuse_'
'confederation_'
'concomitant_'
'conceded_'
'complicating_'
'compensating_'
'comfortably_'
'cle'
'citizenry_'
'circuit_'
'ched_'
'chasing_'
'championing_'
'brokered_'
'bothered_'
'bodes_'
'blurred_'
'blunders_'
'bloggers_'
'black'
'bickering_'
'benevolent_'
'beneficiary_'
'backfire_'
'awaits_'
'awaiting_'
'ava'
'authentic_'
'audit_'
'asthma_'
'arming_'
'aries_'
'arbitration_'
'apprehension_'
'appliances_'
'animosity_'
'ani_'
'analytics_'
'alumni_'
'alo'
'ads_'
'ada'
'accrue_'
'accompanies_'
'accelerates_'
'abortions_'
'abolishing_'
'abandonment_'
'Wea'
'Wal'
'WEF_'
'Venter_'
'UKIP_'
'Turkmenistan_'
'Tripoli_'
'Toward_'
'Timor_'
'Tiger_'
'São_'
'Ste'
'Speaking_'
'Spaniards_'
'Slobodan_'
'Shenzhen_'
'Serious_'
'Ser'
'Sar'
'Sanctions_'
'SWF_'
'SOE_'
'SEATTLE_'
'QE3_'
'Prodi_'
'Pes'
'Pas'
'Parties_'
'PO'
'PISA_'
'Opinion_'
'Nice_'
'Nar'
'Myth_'
'Med'
'Measures_'
'ME'
'Louis_'
'Legal_'
'Lea'
'Kyong_'
'Kuroda_'
'Knowledge_'
'Kh'
'Jack_'
'Institutes_'
'ISTANBUL_'
'Humans_'
'Historical_'
'Hebdo_'
'Gur'
'Gro'
'Giving_'
'Freddie_'
'Fort'
'Farmers_'
'Family_'
'Falling_'
'Examples_'
'Evo_'
'Ethics_'
'Emissions_'
'ER'
'EM'
'ED'
'Duma_'
'Dra'
'Dow_'
'Deficit_'
'De_'
'Crucially_'
'Con'
'Ce'
'Canal_'
'Businesses_'
'Blanchard_'
'Bayrou_'
'BE'
'Articles_'
'Amsterdam_'
'Alt'
'Allied_'
'Ali'
'Ag'
'Adviser_'
'Adolf_'
'Ad'
'AM'
'83_'
'20'
'184'
'11'
' ’_'
'  _'
'ó'
'yan'
'win'
'wetlands_'
'wells_'
'wash_'
'waited_'
'vow_'
'vir'
'vic'
'ver'
'validate_'
'val_'
'ute'
'usable_'
'upwards_'
'upstream_'
'unseen_'
'unsafe_'
'unfairly_'
'unethical_'
'undi'
'underscoring_'
'undeniably_'
'unde'
'ub'
'tweet_'
'tting_'
'troublesome_'
'trail_'
'tory_'
'tilt_'
'tically_'
'testament_'
'tell'
'televised_'
'tackled_'
'synonymous_'
'sy_'
'sword_'
'switching_'
'surround_'
'subpar_'
'submarine_'
'stave_'
'staple_'
'spy_'
'spills_'
'sou'
'son'
'simplify_'
'shutting_'
'shrank_'
'shine_'
'ser'
'seizure_'
'secularists_'
'sectarianism_'
'secretly_'
'sci'
'salient_'
'saddled_'
'rushing_'
'rt'
'ron'
'ri'
'reverting_'
'resident_'
'resemblance_'
'regressive_'
'referendums_'
'reeling_'
'redirect_'
'recurrent_'
'rebate_'
'reads_'
'quot_'
'quit'
'qui'
'quantify_'
'pyramid_'
'probe_'
'principally_'
'prim'
'presentation_'
'predictive_'
'pp'
'polluters_'
'pleasant_'
'pitfalls_'
'pit'
'pictures_'
'picks_'
'physicist_'
'perennial_'
'penchant_'
'peaks_'
'patrol_'
'parental_'
'panicked_'
'pains_'
'oz'
'overturned_'
'overshadowed_'
'overhauling_'
'outs_'
'outreach_'
'oral_'
'onslaught_'
'oned_'
'one'
'nostalgic_'
'normality_'
'nic_'
'nes'
'neck_'
'narcotics_'
'my'
'multicultural_'
'mo'
'mir'
'microfinance_'
'merge_'
'menu_'
'mend_'
'magnified_'
'lor'
'looser_'
'lively_'
'litigation_'
'lied_'
'licenses_'
'leaf_'
'latent_'
'lar'
'lane_'
'landed_'
'knit_'
'kicking_'
'juncture_'
'ju'
'it'
'ish'
'investigators_'
'intimidate_'
'interrupted_'
'intergenerational_'
'inspirational_'
'influenza_'
'inexperienced_'
'inexorably_'
'inept_'
'incredibly_'
'incorrect_'
'inadequacy_'
'implicated_'
'impersonal_'
'imitate_'
'ig'
'ification_'
'ideologues_'
'idealism_'
'ia'
'hygiene_'
'hunting_'
'hopeless_'
'homosexuality_'
'heyday_'
'helicopters_'
'hearted_'
'hardened_'
'harbinger_'
'hap'
'handing_'
'halting_'
'habitat_'
'gue_'
'graphic_'
'gni'
'gna'
'gil'
'gh'
'gaping_'
'frictions_'
'fractured_'
'for'
'flowed_'
'finite_'
'fiasco_'
'façade_'
'fared_'
'fanaticism_'
'famines_'
'extracted_'
'exponentially_'
'exchanging_'
'exchanged_'
'evidenced_'
'euro'
'euphoria_'
'ethnically_'
'epidemiological_'
'envisage_'
'entrusted_'
'enta'
'ening_'
'engulfed_'
'endorsing_'
'encroachment_'
'encompassing_'
'embryonic_'
'embarking_'
'els_'
'elitist_'
'edi'
'ech'
'dreaded_'
'downfall_'
'domino_'
'disturbed_'
'distinguishes_'
'disappearing_'
'disabilities_'
'din'
'differing_'
'dictatorial_'
'devoid_'
'devil_'
'det'
'der'
'deployments_'
'definitively_'
'defer_'
'decree_'
'deceptive_'
'decency_'
'dal'
'creed_'
'cozy_'
'corridors_'
'corps_'
'corners_'
'contests_'
'columnist_'
'coincide_'
'clusters_'
'cluster_'
'cleavages_'
'clearest_'
'chemotherapy_'
'charging_'
'championship_'
'cer'
'cautiously_'
'cate'
'casual_'
'cared_'
'capped_'
'bow_'
'bon'
'boasted_'
'blindness_'
'aviation_'
'augmented_'
'ascent_'
'art'
'arable_'
'apologize_'
'ap'
'ante_'
'annexed_'
'ang_'
'ane'
'amplify_'
'aluminum_'
'akan_'
'aff'
'advertisers_'
'admirable_'
'adage_'
'ace'
'accorded_'
'accidental_'
'abusive_'
'Virtually_'
'Valls_'
'Vaccines_'
'VI'
'Uncertainty_'
'Turning_'
'Sultan_'
'Sufi_'
'Suddenly_'
'Statistics_'
'Sim'
'Shiller_'
'Securing_'
'Sec'
'Sco'
'SCO_'
'Ross_'
'Romer_'
'Resources_'
'Rec'
'Raising_'
'RA'
'Protestants_'
'Protecting_'
'Potter_'
'Police_'
'Pic'
'Parti'
'Paper_'
'Owing_'
'Optimists_'
'Occupy_'
'Novartis_'
'Mussolini_'
'Multi'
'Mount_'
'Max_'
'Mat'
'Luiz_'
'Lit'
'Leonid_'
'Leninist_'
'Lead_'
'Kevin_'
'Kant_'
'Kadyrov_'
'Jones_'
'Jihad_'
'Janata_'
'JERUSALEM_'
'Ir'
'Integration_'
'Int'
'Institutions_'
'Hol'
'Gone_'
'Gap_'
'GNI_'
'Free'
'Flake_'
'Fisher_'
'False_'
'Experience_'
'Enough_'
'Eli'
'EEA_'
'Direct_'
'Der'
'Dep'
'Demand_'
'DDT_'
'Cri'
'Civic_'
'Chongqing_'
'Bur'
'Breivik_'
'Bomb_'
'Bet'
'Benedict_'
'Benazir_'
'Beginning_'
'Barry_'
'Ball'
'Auto'
'Ang'
'Adding_'
'AT_'
'APEC_'
'; '
'21st_'
'2035_'
'1983_'
'1976_'
'...._'
'!” _'
'yt'
'youthful_'
'xa'
'wives_'
'wielding_'
'wet'
'wer'
'warriors_'
'warrants_'
'vultures_'
'vit'
'us'
'upswing_'
'unse'
'unpro'
'unites_'
'ung'
'unconstitutional_'
'unc'
'unbridled_'
'unambiguously_'
'unaddressed_'
'unacceptably_'
'um'
'uan'
'ually_'
'trough_'
'transported_'
'transplant_'
'topped_'
'top'
'titles_'
'timed_'
'time'
'tigers_'
'ticking_'
'thugs_'
'thrives_'
'thresholds_'
'thirst_'
'theorist_'
'tha'
'tera'
'tenuous_'
'template_'
'tem'
'tablets_'
'sweet_'
'surges_'
'summarized_'
'sulfur_'
'suffrage_'
'subservient_'
'subjective_'
'stones_'
'ste'
'statutory_'
'statesmanship_'
'staging_'
'stadiums_'
'sses_'
'spiraling_'
'spelled_'
'speculated_'
'specifics_'
'spans_'
'sor'
'soils_'
'sociologist_'
'sms_'
'smartphones_'
'slums_'
'singled_'
'shining_'
'shedding_'
'sham_'
'scary_'
'scapegoat_'
'sands_'
'sacrosanct_'
'ruthlessly_'
'rts_'
'roiled_'
'ripe_'
'rewrite_'
'resonate_'
'resolutely_'
'researcher_'
'reputational_'
'rene'
'remuneration_'
'relieved_'
'releases_'
'reen'
'receded_'
'realist_'
'ray_'
'radicalized_'
'races_'
'quipped_'
'purged_'
'psychologically_'
'proportionate_'
'princelings_'
'pretending_'
'premises_'
'pregnancy_'
'preeminent_'
'precipitous_'
'precautions_'
'powerfully_'
'possessed_'
'porous_'
'polite_'
'plaintiffs_'
'pioneer_'
'perestroika_'
'pea'
'pat'
'passports_'
'participant_'
'pada_'
'pac'
'outsourced_'
'outpaced_'
'outcry_'
'originating_'
'organizers_'
'ong'
'ological_'
'olds_'
'obstruction_'
'oblivious_'
'nudge_'
'nding_'
'murderers_'
'multiplying_'
'mul'
'mpe'
'moderated_'
'modeling_'
'mm'
'mistreatment_'
'misinformation_'
'mid'
'micro'
'mice_'
'mentor_'
'mentions_'
'martial_'
'magazines_'
'lure_'
'lonely_'
'licensed_'
'lic'
'lib'
'lev'
'lanes_'
'kov_'
'kilometer_'
'ker'
'ji_'
'ist'
'intrusion_'
'intriguing_'
'intifada_'
'int'
'institutes_'
'inroads_'
'ino'
'infinite_'
'inequities_'
'individualism_'
'indictment_'
'incursions_'
'improbable_'
'impress_'
'il'
'ie'
'hydraulic_'
'horrible_'
'honestly_'
'hol'
'here'
'herald_'
'hefty_'
'heel_'
'hectare_'
'heaven_'
'guise_'
'gripped_'
'graduated_'
'glorious_'
'gle'
'geo'
'garbage_'
'galvanized_'
'futility_'
'free'
'frank_'
'fractious_'
'fort'
'faulty_'
'faithful_'
'exotic_'
'exc'
'evils_'
'evi'
'escalated_'
'ers'
'epi'
'entrepreneur_'
'eng'
'ened_'
'enactment_'
'elicit_'
'elect'
'ee_'
'ee'
'dwellers_'
'dt_'
'drowned_'
'donate_'
'disgust_'
'dia'
'devotion_'
'detractors_'
'destinations_'
'depleting_'
'depart_'
'densely_'
'democratizing_'
'defensible_'
'decimated_'
'deceleration_'
'decelerating_'
'cultivating_'
'cubic_'
'cu'
'ctions_'
'ction_'
'crowdfunding_'
'conveniently_'
'contradict_'
'contemplated_'
'consumes_'
'consultants_'
'constituent_'
'conspicuous_'
'conf'
'conceivably_'
'communicating_'
'commissioners_'
'commentator_'
'comm'
'comforting_'
'collateralized_'
'collaborators_'
'coexist_'
'cies_'
'cho'
'chickens_'
'che_'
'cha'
'cent_'
'celebrity_'
'catches_'
'casualty_'
'cal'
'cages_'
'cables_'
'branded_'
'bounds_'
'blames_'
'awe_'
'averages_'
'avenues_'
'automotive_'
'au'
'attorney_'
'asymmetrical_'
'assimilation_'
'asserts_'
'ascendancy_'
'ascend'
'artillery_'
'arc_'
'apocalyptic_'
'apes_'
'announcements_'
'animated_'
'anachronistic_'
'ambivalent_'
'allowances_'
'affiliates_'
'addictive_'
'aba'
'Welfare_'
'Weimar_'
'Wei'
'Walter_'
'Vol'
'Tudor_'
'Thought_'
'Suharto_'
'Stuart_'
'Sti'
'Shortly_'
'Sh'
'Sechin_'
'SE'
'Rock_'
'Rescue_'
'Ref'
'Rea'
'Re'
'Rate_'
'RE'
'Plaza_'
'Past_'
'Parkinson_'
'PC'
'Omar_'
'Nor'
'Nile_'
'NO'
'Museum_'
'Multilateral_'
'Mol'
'Mike_'
'Mer'
'Massive_'
'Mal'
'MNCs_'
'Lacking_'
'LGBT_'
'Kushner_'
'Kan'
'Is'
'Iowa_'
'Inclusive_'
'Immigration_'
'Ifo_'
'Id'
'ISI_'
'IR'
'Honduras_'
'Herbert_'
'Helsinki_'
'Helmut_'
'Gülenist_'
'Gul_'
'GST_'
'Finding_'
'Filipino_'
'Feldstein_'
'Fall_'
'FI'
'Eu'
'Eric_'
'Equity_'
'Doctrine_'
'Diversity_'
'Dilemma_'
'Deposit_'
'Deaton_'
'Cur'
'Culture_'
'Crises_'
'Cop'
'Continued_'
'Competitiveness_'
'Compare_'
'Commonwealth_'
'Comm'
'Co_'
'Class_'
'Choice_'
'Chance_'
'Carnegie_'
'Bro'
'Bringing_'
'Botswana_'
'Bond_'
'Bollywood_'
'Bharatiya_'
'Beg'
'BMI_'
'Ay'
'Assessment_'
'Arizona_'
'Arguably_'
'Ale'
'Accord_'
'230_'
'169_'
'101_'
'08_'
'. &_'
','
'%'
'zz'
'yr'
'wrath_'
'wine_'
'wi_'
'weaponry_'
'washing_'
'vividly_'
'vigilantes_'
'vi_'
'vetoed_'
'verify_'
'veri'
'vaccinated_'
'ures_'
'upfront_'
'unfulfilled_'
'unfolded_'
'underdevelopment_'
'uncharted_'
'unbearable_'
'unanticipated_'
'unabated_'
'ue'
'uct'
'tycoon_'
'twelve_'
'turbines_'
'tro'
'translating_'
'tradeoffs_'
'tournament_'
'tipped_'
'timeline_'
'throne_'
'thro'
'theoretically_'
'testified_'
'tender_'
'tan_'
'symbolized_'
'susceptibility_'
'supervise_'
'stro'
'streamline_'
'ston'
'sterilization_'
'steered_'
'stealing_'
'steadfast_'
'statecraft_'
'stabilizers_'
'ssa'
'squeezing_'
'spree_'
'spate_'
'soup_'
'sol'
'slowdowns_'
'slice_'
'singular_'
'shrug_'
'show'
'shoots_'
'shell_'
'sharks_'
'sharia_'
'sessions_'
'sequestration_'
'sequester_'
'seller_'
'sectoral_'
'sec'
'scholarly_'
'scapegoats_'
'sanguine_'
'samples_'
'rumored_'
'rotating_'
'rot_'
'roiling_'
'rigorously_'
'righteous_'
'rever'
'rest'
'ress_'
'reservoirs_'
'rese'
'reproduction_'
'relocating_'
'reelected_'
'recur_'
'recruited_'
'reciprocal_'
'raped_'
'ransom_'
'quote_'
'purity_'
'protocols_'
'profiling_'
'professions_'
'precursor_'
'precipitated_'
'pra'
'portraying_'
'politicization_'
'play'
'planted_'
'philanthropists_'
'pes'
'performs_'
'penalize_'
'peacemaking_'
'patently_'
'pass'
'paramilitary_'
'panics_'
'pa_'
'overcame_'
'outlet_'
'onal_'
'ominously_'
'offerings_'
'och'
'obscures_'
'nting_'
'noteworthy_'
'northeastern_'
'normative_'
'needing_'
'ncy_'
'nativist_'
'nar'
'naming_'
'nal_'
'multifaceted_'
'morphed_'
'monument_'
'monetarist_'
'misused_'
'missteps_'
'mimic_'
'militarized_'
'midnight_'
'mem'
'marshal_'
'marriages_'
'marginalize_'
'mans'
'manifested_'
'maneuvers_'
'louder_'
'lottery_'
'logically_'
'lling_'
'limbo_'
'likened_'
'lf'
'legitimizing_'
'lawsuit_'
'lawless_'
'ks'
'kings_'
'kidnapped_'
'kh'
'kat_'
'ivory_'
'isi'
'isa'
'intricate_'
'interrogation_'
'intensely_'
'instituting_'
'innumerable_'
'inland_'
'inhibitors_'
'inflicting_'
'inexorable_'
'ine'
'indignation_'
'incu'
'inci'
'idealistic_'
'ice'
'hydroelectric_'
'hukou_'
'hr'
'hourly_'
'hot'
'horrendous_'
'hopelessly_'
'holdout_'
'hiking_'
'hereditary_'
'hen'
'heart'
'harbors_'
'gue'
'guardians_'
'growers_'
'grappling_'
'grandmother_'
'grandiose_'
'god'
'ght'
'gateway_'
'gad'
'fro'
'freight_'
'formulation_'
'foe_'
'focal_'
'fo'
'fledgling_'
'fin'
'fervor_'
'federalist_'
'explode_'
'expansionist_'
'exhibition_'
'exemptions_'
'executing_'
'exceptionalism_'
'et'
'erin'
'era'
'equa'
'ep'
'ente'
'elo'
'ell_'
'ell'
'eliminates_'
'eagerness_'
'eagerly_'
'e'
'durability_'
'dressed_'
'downgraded_'
'doorstep_'
'diversifying_'
'distraction_'
'discourages_'
'discord_'
'disastrously_'
'dirt_'
'dignified_'
'digits_'
'devolution_'
'detrimental_'
'desirability_'
'descended_'
'derided_'
'dera'
'del_'
'definitions_'
'defective_'
'defamation_'
'def'
'dedication_'
'darkness_'
'dance_'
'cusp_'
'cultivation_'
'cru'
'creatures_'
'countervailing_'
'counsel_'
'cooperatives_'
'conveyed_'
'convertible_'
'converging_'
'consult_'
'constitutionally_'
'congestion_'
'cong'
'confound'
'compliant_'
'com'
'colorful_'
'clues_'
'clinging_'
'cites_'
'chore'
'ches_'
'chea'
'characters_'
'chambers_'
'centrifuges_'
'centrally_'
'castes_'
'carpet_'
'cameras_'
'calorie_'
'butter_'
'bulwark_'
'breathtaking_'
'bre'
'borrows_'
'blatantly_'
'beholden_'
'behaves_'
'bb'
'basing_'
'basin_'
'backfired_'
'atop_'
'assign_'
'asse'
'ashes_'
'arbiter_'
'appointees_'
'apples_'
'ant'
'amply_'
'alienate_'
'air'
'aiding_'
'affordability_'
'afflict_'
'adolescent_'
'acid_'
'accomplishment_'
'accelerator_'
'Zambia_'
'Wikipedia_'
'WARSAW_'
'Vision_'
'UN'
'Typically_'
'Tsai_'
'Transition_'
'Tom_'
'Timothy_'
'Thucydides_'
'Terrorist_'
'Tensions_'
'Ted_'
'Task_'
'Taj_'
'Suez_'
'Stre'
'Stra'
'Stein_'
'Steel_'
'Solution_'
'Snow_'
'Smoot_'
'Shrine_'
'Shimon_'
'Sen'
'Schuman_'
'Schmidt_'
'Sadr_'
'START_'
'ST'
'SAN_'
'Rates_'
'Qua'
'Property_'
'Programme_'
'Presidency_'
'Pres'
'Port'
'Poroshenko_'
'Plato_'
'Platform_'
'Planning_'
'Pius_'
'Philip_'
'Ph'
'Nouri_'
'Nikita_'
'Nagasaki_'
'Mus'
'Moving_'
'Mission_'
'Migrants_'
'Mass_'
'Mani'
'Lake_'
'Kindleberger_'
'Ker'
'Keeping_'
'Jersey_'
'Isn_'
'Intifada_'
'Intel_'
'Institutional_'
'Industry_'
'Improved_'
'IT'
'IDA_'
'IA'
'Holmes_'
'Hawley_'
'Hatoyama_'
'Hat'
'Gujarat_'
'Golan_'
'Going_'
'Fire_'
'FAO_'
'Er'
'Equality_'
'Economically_'
'EIB_'
'Druze_'
'Dokdo_'
'Doctors_'
'District_'
'Dangerous_'
'Cubans_'
'Continent_'
'Conflict_'
'Commons_'
'Chin'
'Chiang_'
'Channel_'
'Cast'
'Cambodian_'
'CSR_'
'CP'
'CJD_'
'CACs_'
'Bonn_'
'Bla'
'Bengali_'
'Bangalore_'
'Back'
'BRCA2_'
'Attempts_'
'Ashton_'
'Armenians_'
'Arm'
'Anti'
'Anna_'
'Amartya_'
'Airport_'
'Adenauer_'
'Ac'
'70th_'
'42'
'29'
'23andMe_'
'23'
'1955_'
'188'
'185'
'16'
'135_'
'ä'
'zh'
'zer_'
'wreck_'
'wn_'
'witnesses_'
'wireless_'
'watches_'
'warrior_'
'walks_'
'vol'
'vaunted_'
'vacations_'
'ust'
'urges_'
'upend_'
'unpopularity_'
'underw'
'understandings_'
'undercutting_'
'uncoordinated_'
'uncommon_'
'unarmed_'
'unanswered_'
'un'
'ua'
'tude_'
'transcends_'
'tors_'
'tori'
'tively_'
'tie'
'tics_'
'tial_'
'thi'
'thes'
'temperament_'
'takers_'
'tab'
'synthesis_'
'syn'
'swor'
'swallow_'
'survives_'
'suburbs_'
'substituting_'
'su'
'strategist_'
'stirring_'
'staunchly_'
'stances_'
'spying_'
'spite_'
'speculate_'
'sparking_'
'som'
'snap_'
'smile_'
'smartphone_'
'smallpox_'
'slippery_'
'sli'
'ski_'
'ske'
'sigh_'
'shri'
'shootings_'
'shelf_'
'sensitivities_'
'sei'
'secrets_'
'secretive_'
'secessionist_'
'seasoned_'
'seasonal_'
'sea'
'schism_'
'scales_'
'sang_'
'rudimentary_'
'ruct'
'rre'
'ritual_'
'rin'
'revitalization_'
'revisit_'
'resuming_'
'resu'
'respectful_'
'res'
'requisite_'
'reproduce_'
'replicating_'
'reopened_'
'renders_'
'rein'
'reflation_'
'redouble_'
'reco'
'reciprocity_'
'reception_'
'rebounded_'
'rear_'
'rationally_'
'ranges_'
'rains_'
'quer'
'qualitative_'
'publishes_'
'prosecuting_'
'progressively_'
'programmed_'
'profiles_'
'priests_'
'pref'
'preach_'
'polarizing_'
'plotting_'
'pitting_'
'pit_'
'pioneers_'
'pho'
'pers_'
'perjanjian_'
'perceives_'
'pathway_'
'painting_'
'overweight_'
'overstretched_'
'overhangs_'
'ounce_'
'ont'
'ons'
'om'
'oligarchy_'
'odi'
'oca'
'obstruct_'
'oblige_'
'nursing_'
'numerical_'
'nth'
'normalizing_'
'nongovernmental_'
'nominally_'
'nk'
'night'
'ney_'
'neoclassical_'
'needy_'
'needlessly_'
'nds_'
'ndi'
'muscles_'
'mouths_'
'mismatches_'
'mismanaged_'
'miserable_'
'misallocation_'
'min'
'mildly_'
'meritocratic_'
'memoirs_'
'mbo'
'mar_'
'malnourished_'
'longtime_'
'long'
'lone_'
'locate_'
'lm'
'lle'
'liness_'
'lightly_'
'liberating_'
'lia_'
'leveling_'
'legitimately_'
'legendary_'
'leeway_'
'labeling_'
'kel'
'jumping_'
'joy_'
'jokes_'
'iva'
'ita'
'interviewed_'
'intelligentsia_'
'insular_'
'instruction_'
'instructed_'
'insofar_'
'inge'
'inflame_'
'infer'
'infect_'
'inevitability_'
'incorporating_'
'impotent_'
'implant'
'hysteria_'
'hurdle_'
'hun'
'hindering_'
'hes_'
'helpless_'
'heirs_'
'heighten_'
'headquartered_'
'hea'
'hau'
'hasten_'
'harmless_'
'hammer_'
'ham'
'halve_'
'guy_'
'guardian_'
'guarantor_'
'groupings_'
'grips_'
'gray_'
'grasped_'
'gli'
'gir'
'gifted_'
'gh_'
'genomic_'
'gene'
'gear_'
'ge'
'gays_'
'fur'
'funeral_'
'foothold_'
'flies_'
'finalized_'
'fil'
'fickle_'
'feud'
'extracting_'
'exemplifies_'
'exemplary_'
'excuses_'
'evangelical_'
'enroll_'
'end'
'emis'
'emigration_'
'embarrassment_'
'elli'
'eling_'
'ei'
'ego'
'ect'
'ecologically_'
'détente_'
'droves_'
'drinks_'
'doubly_'
'dou'
'doctrines_'
'distinguishing_'
'distinctly_'
'dissatisfied_'
'disinflation_'
'dishonest_'
'disenchantment_'
'developmental_'
'devastate_'
'ders_'
'delegated_'
'decidedly_'
'deci'
'decentralization_'
'dearly_'
'darker_'
'custom_'
'curtain_'
'cunning_'
'cre'
'cou'
'corridor_'
'cooperated_'
'contextual_'
'contention_'
'contenders_'
'conspicuously_'
'consortium_'
'consciously_'
'conquered_'
'conditioned_'
'condemns_'
'conclusive_'
'complemented_'
'colo'
'clo'
'claimants_'
'child'
'cher_'
'cheer_'
'chamber_'
'cessation_'
'cellular_'
'ceilings_'
'ced_'
'cas'
'byproduct_'
'bred_'
'boomers_'
'boldness_'
'blood'
'blogs_'
'binds_'
'bes'
'bef'
'bed'
'bac'
'authorize_'
'authoritative_'
'attainable_'
'astute_'
'asteroid_'
'assisting_'
'aspirational_'
'ars'
'ards_'
'ard'
'apologized_'
'apo'
'antiquated_'
'anomaly_'
'annoy'
'annihilation_'
'angst_'
'amplifying_'
'ambassadors_'
'alization_'
'agro_'
'agile_'
'affront_'
'affiliation_'
'aerial_'
'advising_'
'advertisements_'
'acquiesce_'
'aci'
'Zoellick_'
'Yingluck_'
'We'
'Walmart_'
'WE'
'WA'
'Universities_'
'Tom'
'Thein_'
'Tamils_'
'TO'
'Susan_'
'Supporters_'
'Summer_'
'Spa'
'Sit'
'Shin'
'Shevardnadze_'
'Scots_'
'Safe_'
'SO'
'SNB_'
'Rural_'
'Rose_'
'Ret'
'Religious_'
'Reduction_'
'Red'
'Recall_'
'Rafsanjani_'
'Radical_'
'Ps_'
'Prosperity_'
'Plan'
'Pho'
'Pay'
'Paradox_'
'Palace_'
'Pad'
'PRAGUE_'
'PDVSA_'
'Normally_'
'Neo_'
'Neighborhood_'
'NPLs_'
'NC'
'Mos'
'Moroccan_'
'Mit'
'Mercosur_'
'McConnell_'
'Mas'
'Manufacturing_'
'Manila_'
'Manhattan_'
'Maj'
'Macierewicz_'
'Macedonia_'
'MS'
'Lyndon_'
'Lucas_'
'Livni_'
'Liberty_'
'Liberals_'
'Lancet_'
'Kohl_'
'KRG_'
'Islami'
'Investments_'
'Inv'
'IV_'
'ITER_'
'IS_'
'ISPs_'
'ID'
'Hour_'
'Hospital_'
'Hold'
'Heights_'
'Hans_'
'Ham'
'Gül_'
'Gy'
'Griesa_'
'Gre'
'Giscard_'
'Gary_'
'GH'
'Frontier_'
'Friday_'
'Fattah_'
'FRANKFURT_'
'FMLN_'
'Extra'
'Export_'
'Expe'
'Exc'
'Ex'
'Establishing_'
'Essentially_'
'Eritrea_'
'Erdogan_'
'ENP_'
'Dhabi_'
'Delors_'
'Dam_'
'Constituent_'
'Confucius_'
'Code_'
'Clean_'
'Christopher_'
'Cash_'
'Carolina_'
'CI'
'Brunei_'
'Bentham_'
'Belgrade_'
'Begin_'
'Becker_'
'Barro_'
'Barghouti_'
'BRCA1_'
'BOSTON_'
'BC_'
'Alex'
'Ai'
'Ahtisaari_'
'Ahmad_'
'Ae'
'AIPAC_'
'94_'
'62'
'4'
'270_'
'25'
'193_'
'11th_'
'.’”_'
'. '
'-$_'
'… _'
'è'
'·&_'
'yu'
'worthless_'
'worsens_'
'wn'
'wedded_'
'wag'
'vulture_'
'vas'
'va_'
'usi'
'use'
'unparalleled_'
'unify_'
'unco'
'unaffected_'
'uding_'
'uat'
'tying_'
'tweeted_'
'tumult_'
'transactional_'
'tra'
'ting'
'tin'
'timber_'
'terminology_'
'tent'
'teetering_'
'techno_'
'takeoff_'
'symbolically_'
'surrogate_'
'supervised_'
'superstars_'
'subnational_'
'stumbling_'
'stumble_'
'stu'
'strongman_'
'streak_'
'stirred_'
'stir_'
'stipulates_'
'sting'
'spirited_'
'spikes_'
'spi'
'sourced_'
'soften_'
'socialists_'
'sna'
'smartest_'
'sma'
'skyrocketed_'
'skillful_'
'sk'
'shoot_'
'sho'
'shielded_'
'sheep_'
'sh'
'sen'
'sel'
'sed'
'secularist_'
'searches_'
'scream'
'sclerotic_'
'scen'
'scared_'
'sala'
'sal'
'ruined_'
'rse'
'rp'
'ron_'
'rolls_'
'rist'
'rightful_'
'revolutionized_'
'retr'
'responsiveness_'
'resented_'
'repress_'
'repayments_'
'reparations_'
'renege_'
'rend'
'remnants_'
'reined_'
'regrettable_'
'regionally_'
'refrained_'
'reconstruct_'
'recipes_'
'recidivism_'
'recast_'
'reassurance_'
'reactive_'
'rays_'
'rattling_'
'ramp_'
'raged_'
'putsch_'
'psychiatry_'
'prudently_'
'protector_'
'prosecutions_'
'proliferating_'
'prepares_'
'preferring_'
'pot'
'portrays_'
'pooled_'
'plu'
'plots_'
'playbook_'
'pitch_'
'pesos_'
'percentile_'
'partisanship_'
'parti'
'parade_'
'pacts_'
'packaging_'
'pacifist_'
'ou_'
'ome_'
'oli'
'ole'
'oil'
'nots_'
'nose_'
'nonfinancial_'
'nge'
'newborn_'
'networking_'
'nepotism_'
'nativism_'
'musical_'
'molecules_'
'misdeeds_'
'militancy_'
'midterm_'
'metaphors_'
'metabolic_'
'mes'
'meni'
'memorable_'
'mega'
'mediated_'
'mediate_'
'mapping_'
'manufactures_'
'manifesto_'
'mani'
'mal'
'macroeconomists_'
'logging_'
'loading_'
'literary_'
'lid_'
'liar'
'lem'
'lays_'
'layoffs_'
'launches_'
'lat'
'lah_'
'labs_'
'kne'
'ken'
'kee'
'kebijakan_'
'jun'
'itu_'
'itt'
'iti'
'inventors_'
'inu'
'intrinsically_'
'intolerant_'
'intentional_'
'injecting_'
'infer_'
'iner'
'inel'
'indicative_'
'inconsistency_'
'incarceration_'
'inadequately_'
'imitation_'
'imbued_'
'ille'
'ile_'
'ified_'
'iPhone_'
'hy_'
'homeless_'
'holidays_'
'hoax_'
'hl'
'hin'
'hill_'
'hil'
'hie'
'hesitated_'
'heft_'
'hears_'
'hawkish_'
'harassed_'
'gur'
'grand'
'grabbed_'
'gossip_'
'gn'
'gloom_'
'glimmer_'
'gla'
'geothermal_'
'genie_'
'gambit_'
'gal'
'funders_'
'forfeit'
'forestall_'
'foregone_'
'flock_'
'floated_'
'finest_'
'finalize_'
'figuring_'
'fated_'
'familiarity_'
'explosions_'
'exhibit_'
'exhaustion_'
'eurobonds_'
'etic_'
'erupts_'
'erecting_'
'epigenetic_'
'entrench_'
'ensued_'
'emulated_'
'elu'
'electro'
'ega'
'ede'
'earnest_'
'earmarked_'
'dwell_'
'du'
'drum'
'doubtless_'
'div'
'diss'
'displacing_'
'dismay_'
'diplomatically_'
'digging_'
'differentiate_'
'diagnose_'
'di'
'deteriorates_'
'despotism_'
'depressive_'
'depressions_'
'dense_'
'den'
'democratize_'
'dementia_'
'defiant_'
'defendants_'
'defect_'
'decoupled_'
'declares_'
'dear_'
'dd'
'dated_'
'cul'
'criticizes_'
'courting_'
'corrective_'
'cord'
'convening_'
'contractor_'
'contingency_'
'consequently_'
'consequent_'
'confirming_'
'configuration_'
'concessional_'
'composite_'
'complaining_'
'compatriots_'
'commanded_'
'clown'
'cleanup_'
'classification_'
'cking_'
'cis'
'cil'
'chilling_'
'chiefly_'
'ceremonies_'
'cepti'
'cca'
'cau'
'cats_'
'cata'
'casts_'
'cancellation_'
'calculates_'
'c'
'busts_'
'brush_'
'brid'
'bribe_'
'bore_'
'blu'
'bird_'
'bic'
'bells_'
'beaches_'
'bat'
'barbaric_'
'band'
'bags_'
'bacterium_'
'back'
'authorization_'
'authored_'
'au_'
'attaining_'
'assuring_'
'assuage_'
'arrives_'
'arresting_'
'arranged_'
'aroused_'
'ari'
'arche'
'archaic_'
'arbitra'
'applause_'
'anonymity_'
'anguish_'
'ampnbsp_'
'alu'
'altruism_'
'alleviating_'
'all'
'airplanes_'
'agro'
'affirmed_'
'adopts_'
'accidentally_'
'abject_'
'aberration_'
'Zuckerberg_'
'Zo'
'Zidane_'
'Wor'
'Wisconsin_'
'Winning_'
'Whit'
'Wel'
'Vs_'
'Violent_'
'Ur'
'Trouble_'
'Tou'
'Thaler_'
'Tesla_'
'Stop_'
'Standards_'
'Stagnation_'
'Spi'
'Soft_'
'Sixty_'
'Shu'
'Shiites_'
'Shabaab_'
'Seen_'
'Section_'
'Seattle_'
'Sea'
'Scholars_'
'Sc'
'Sarah_'
'Sam'
'Salafis'
'SS_'
'Ruhollah_'
'Rudd_'
'Ron_'
'Riyadh_'
'Renminbi_'
'Rem'
'Reddit_'
'Race_'
'RMB'
'Punjab_'
'Powerful_'
'Pierre_'
'Petrobras_'
'Person'
'Path'
'Parliamentary_'
'PALO_'
'Ozawa_'
'Opening_'
'Online_'
'Od'
'Normal_'
'Niño_'
'Nigel_'
'Nexus_'
'Nat'
'Naif_'
'Nag'
'Nadu_'
'NG'
'Myriad_'
'Ms_'
'Mind_'
'Milan_'
'Mid'
'Marie_'
'Mainstream_'
'Mahatma_'
'MO'
'MFF_'
'MB'
'MA_'
'MANILA_'
'Lin_'
'Legislative_'
'LE'
'Kun'
'Kibaki_'
'Junichiro_'
'Judaism_'
'Jen'
'JA'
'Impact_'
'IR_'
'IM'
'Humanity_'
'Humanitarian_'
'Hor'
'Hon'
'Hirohito_'
'Hil'
'Heritage_'
'Han_'
'Haldane_'
'Gui'
'Guards_'
'Gua'
'Gross_'
'Gold'
'Gil'
'Ger'
'Fukuyama_'
'Fran'
'Forg'
'Fifteen_'
'Fears_'
'Fast_'
'Fal'
'Existing_'
'Events_'
'Ethiopian_'
'End'
'Emb'
'Dr'
'Donors_'
'Don'
'Diamond_'
'Dhaka_'
'Def'
'Decline_'
'Daoud_'
'Comple'
'Commercial_'
'Colorado_'
'Chemical_'
'Cat'
'Cas'
'CRISPR_'
'CO'
'CM'
'CH'
'CA_'
'Bon'
'Bob_'
'Blind'
'Ban'
'Baker_'
'Ba_'
'Awakening_'
'Austr'
'Auschwitz_'
'Arthur_'
'Art_'
'Airbnb_'
'Ahmar_'
'ALTO_'
'AD'
';'
'47'
'220_'
'203'
'1952_'
'1918_'
'1907_'
'175_'
'05_'
'-, _'
'”._'
'ón_'
'ça'
'·'
'° _'
'yd'
'wre'
'workplaces_'
'wishing_'
'whisper'
'weights_'
'we'
'wa_'
'visibility_'
'vid'
'vetting_'
'vertical_'
'venue_'
'vehemently_'
'var'
'urs_'
'urs'
'uring_'
'unorthodox_'
'unofficial_'
'unmet_'
'uniforms_'
'unfit_'
'uneducated_'
'uncontrollable_'
'uncompromising_'
'una_'
'ui'
'tua'
'tted_'
'tt_'
'trumps_'
'transmitting_'
'trans'
'tragically_'
'trader_'
'tracked_'
'tow'
'thread_'
'ther_'
'theological_'
'theocratic_'
'tered_'
'tearing_'
'tas_'
'tant'
'tally_'
'tales_'
'tahun_'
'tack_'
'tabloid_'
'synergies_'
'swi'
'swamp_'
'suspending_'
'surpassing_'
'sul'
'stymied_'
'styles_'
'straining_'
'stra'
'stor'
'sters_'
'statute_'
'star'
'stamps_'
'sponsor_'
'spearhead_'
'solitary_'
'smog_'
'sleeping_'
'slaves_'
'skillfully_'
'skeptic_'
'sizable_'
'sit'
'sinks_'
'sing'
'sincerity_'
'sil'
'shu'
'short'
'shoring_'
'shirts_'
'shadowy_'
'servant_'
'seren'
'sequences_'
'seniority_'
'sena'
'securitized_'
'searched_'
'rumor_'
'rounded_'
'roof_'
'robustly_'
'ro'
'rn_'
'rk_'
'ridicule_'
'revolutionize_'
'retro'
'retreated_'
'restraining_'
'restless_'
'residency_'
'reservoir_'
'resentful_'
'repudiation_'
'reporter_'
'repetition_'
'repatriate_'
'rental_'
'remembers_'
'reli'
'reinvigorating_'
'redistributing_'
'recreate_'
'rearing_'
'realpolitik_'
'raters_'
'ran'
'quarrel_'
'puzzled_'
'pti'
'prostitution_'
'prostitutes_'
'prostate_'
'prolonging_'
'preschool_'
'preoccupation_'
'premised_'
'preempt_'
'predicated_'
'predetermined_'
'precipice_'
'pop'
'polemic'
'poetry_'
'plethora_'
'pleasing_'
'plea_'
'placate_'
'pla'
'pilgrims_'
'pig'
'photographs_'
'phenomenal_'
'pesticide_'
'pen_'
'peacetime_'
'patrons_'
'pales_'
'owi'
'overtime_'
'overreach_'
'overhauled_'
'outlines_'
'osi'
'opting_'
'onist_'
'olo'
'oke'
'og'
'occu'
'ob'
'o'
'nutshell_'
'nto'
'northwest_'
'nonprofit_'
'nge_'
'neu'
'navigation_'
'nail_'
'mut'
'ms'
'mourning_'
'mort'
'morals_'
'monster_'
'monetize_'
'mock'
'misconceptions_'
'misc'
'miracles_'
'ment'
'mela'
'medal_'
'mbi'
'mb'
'maid'
'magnet_'
'ludicrous_'
'lt_'
'loyalties_'
'loving_'
'lob'
'lish'
'lin'
'limitation_'
'lighter_'
'lessen_'
'ld'
'lan_'
'kitchen_'
'kes'
'jittery_'
'iri'
'iously_'
'intuitions_'
'intra'
'interstate_'
'insurgencies_'
'insi'
'innocuous_'
'innate_'
'ink'
'inhabited_'
'inflexible_'
'inflating_'
'inflammatory_'
'induces_'
'incurring_'
'inconclusive_'
'imperfections_'
'impairment_'
'immature_'
'ima'
'ign'
'iest_'
'ide_'
'ias_'
'ially_'
'hotter_'
'horizontal_'
'hierarchies_'
'hers_'
'heroism_'
'hemoglobin_'
'hel'
'harshly_'
'harmonized_'
'hardships_'
'haircuts_'
'habitats_'
'gy_'
'gravely_'
'grades_'
'grad'
'gol'
'god_'
'get'
'gau'
'gatherings_'
'fulfillment_'
'fti'
'fruitful_'
'frothy_'
'frankly_'
'frames_'
'foresaw_'
'foreclosures_'
'fooled_'
'fodder_'
'flux_'
'flowers_'
'flew_'
'flatter'
'fisted_'
'fin_'
'filing_'
'fiduciary_'
'fication_'
'fer'
'feasibility_'
'faraway_'
'fanciful_'
'fairy_'
'expel_'
'excited_'
'evacuate_'
'euthanasia_'
'equate'
'endowment_'
'embodiment_'
'emblematic_'
'elders_'
'ees_'
'earns_'
'ear_'
'dy'
'dwarf_'
'dre'
'downing_'
'dor_'
'doc'
'diverge_'
'dissemination_'
'dispossessed_'
'dislocation_'
'disillusionment_'
'disgrace_'
'disenchanted_'
'discriminate_'
'disclosures_'
'disciplinary_'
'discern'
'disapproval_'
'disaffection_'
'din_'
'dila'
'differentiated_'
'dial'
'deviation_'
'desk_'
'depreciations_'
'deportation_'
'depicted_'
'demonetization_'
'deliveries_'
'del'
'dash_'
'damning_'
'currents_'
'curbed_'
'culprits_'
'cries_'
'creature_'
'crashes_'
'correspond_'
'corollary_'
'contents_'
'connects_'
'conform_'
'confinement_'
'confi'
'complicates_'
'communicated_'
'collects_'
'clinicians_'
'cli'
'classify_'
'circulating_'
'chest_'
'char'
'census_'
'cen'
'celebrities_'
'catalyzed_'
'carrots_'
'cargo_'
'bypassing_'
'button_'
'butt'
'bumpy_'
'brainer_'
'brain'
'borderless_'
'boot_'
'boo'
'bol'
'bogus_'
'bo_'
'bluster_'
'blindly_'
'blew_'
'bits_'
'bing_'
'betray_'
'bet'
'ben'
'bearer_'
'bau'
'base'
'bas'
'bara'
'bak_'
'backyard_'
'ave'
'ato'
'asymmetries_'
'astonishingly_'
'asso'
'artistic_'
'artist_'
'antibodies_'
'answering_'
'anic_'
'amin'
'am'
'alternate_'
'allay_'
'alis'
'alg'
'ale_'
'alarmingly_'
'ala'
'aggravating_'
'affirm_'
'adheres_'
'adhered_'
'addicted_'
'ack'
'acce'
'abysmal_'
'abst'
'ab_'
'Zine_'
'Yew_'
'Yasser_'
'Yan'
'Wyoming_'
'Watson_'
'Val'
'Uttar_'
'Uns'
'Unity_'
'Tru'
'Transitional_'
'Taxes_'
'Talk_'
'TO_'
'TON_'
'TI'
'Stronger_'
'Strengthening_'
'Stockholm_'
'Stabilization_'
'Spratly_'
'Spence_'
'Sn'
'Shar'
'Sel'
'Secret_'
'Schools_'
'Sch'
'Say'
'Safety_'
'STEM_'
'SB'
'Rompuy_'
'Reve'
'Responsible_'
'Religion_'
'Reco'
'RO'
'Quite_'
'Protest'
'Protect_'
'Ponzi_'
'Podemos_'
'Pension_'
'Ot'
'Olivier_'
'Obasanjo_'
'OR'
'Numerous_'
'NA_'
'NAIROBI_'
'Myung_'
'Mur'
'Move'
'Mosul_'
'Mogherini_'
'Met'
'Meles_'
'Marines_'
'Marco_'
'Maoists_'
'Magna_'
'Macroeconomic_'
'Macro_'
'MDR_'
'M2_'
'López_'
'Lukashenko_'
'Lan'
'Lahore_'
'LAGUNA_'
'Kuchma_'
'Knesset_'
'Kenyans_'
'Kennan_'
'Karachi_'
'Kam'
'Jokowi_'
'Joa'
'Interior_'
'Intellectual_'
'Inside_'
'Ine'
'Ideas_'
'IVF_'
'IEA_'
'IDB_'
'Howard_'
'Houthis_'
'Home'
'Hasina_'
'Hangzhou_'
'Friends_'
'Fortune_'
'Forest_'
'Fir'
'Finnish_'
'Fernández_'
'Ferdinand_'
'FTT_'
'Extreme_'
'Ev'
'Estaing_'
'Emi'
'Earthquake_'
'EP'
'Drugs_'
'Dominican_'
'Diseases_'
'Disaster_'
'Depending_'
'Democracies_'
'Dead_'
'Dawkins_'
'Dalit_'
'DPP_'
'Crime_'
'Cre'
'Cowen_'
'Conventions_'
'Conservation_'
'Consequences_'
'Complicating_'
'Coca_'
'Cla'
'Citibank_'
'Chu'
'CLAREMONT_'
'CAIRO_'
'CAFTA_'
'Buenos_'
'Brother_'
'Bridge_'
'Brady_'
'Bor'
'BAT_'
'Amnesty_'
'Ama'
'Albanians_'
'Aires_'
'Af'
'Ade'
'Abu'
'AP_'
'?)'
'63'
'43'
'38'
'35'
'3'
'2021_'
'202'
'1917_'
'1800_'
'179'
'10'
'09_'
'...”_'
'.)'
',&_'
'): _'
'%.'
'% '
'éc'
'zza'
'zoning_'
'zo_'
'zin'
'yed_'
'xt'
'wrongdoing_'
'wit'
'windows_'
'wielded_'
'wherewithal_'
'wheel_'
'wati_'
'water'
'was'
'waned_'
'wander'
'wai'
'visual_'
'vin'
'vigilance_'
'vexing_'
'ux_'
'uttered_'
'unprecedentedly_'
'uninsured_'
'unders'
'underestimating_'
'undecided_'
'unconstrained_'
'unavailable_'
'unattainable_'
'ume'
'ulat'
'ula'
'uk_'
'ude_'
'typ'
'tunnels_'
'tunnel_'
'truck_'
'traps_'
'touched_'
'tore_'
'tom'
'toe'
'timeframe_'
'tickets_'
'tho'
'thick_'
'teri'
'tent_'
'teenage_'
'tailspin_'
'synchronized_'
'symptomatic_'
'superst'
'superseded_'
'subtract'
'subscribe_'
'subjecting_'
'subcontinent_'
'stronghold_'
'strident_'
'stoves_'
'stin'
'stas'
'stab'
'ssu'
'sprawling_'
'spinning_'
'spells_'
'speeds_'
'specify_'
'specialty_'
'soft'
'skies_'
'simplified_'
'siders_'
'shrewd_'
'shockingly_'
'shelling_'
'she'
'separatism_'
'separates_'
'sensibly_'
'sens'
'semi'
'scorn_'
'school'
'savage_'
'rted_'
'rism_'
'ris_'
'righteousness_'
'riders_'
'rial_'
'retard'
'ressi'
'reso'
'resembling_'
'repro'
'repaired_'
'renti'
'reminding_'
'reminders_'
'remi'
'reinterpretation_'
'recycled_'
'recommending_'
'reckoned_'
'recapitalized_'
'rebuffed_'
'razor_'
'rati'
'rash_'
'rainy_'
'railroad_'
'rail'
'quart'
'put'
'purportedly_'
'purges_'
'punch_'
'psychiatrists_'
'protestors_'
'proliferate_'
'profited_'
'productively_'
'proclaims_'
'prince_'
'pressuring_'
'preserves_'
'prescribe_'
'pres'
'prerequisites_'
'preaching_'
'poly'
'policeman_'
'plum'
'ploy_'
'pli'
'plausibly_'
'placement_'
'piling_'
'phi'
'pharmac'
'perseverance_'
'performers_'
'ped'
'peace'
'payoffs_'
'patchwork_'
'passivity_'
'participatory_'
'oxide_'
'ovi'
'overtures_'
'oversaw_'
'overlooks_'
'ova'
'outstrip_'
'outs'
'ousness_'
'ort_'
'ore'
'oph'
'operator_'
'operatives_'
'opera_'
'openings_'
'onian_'
'oft_'
'oes_'
'oe'
'observing_'
'nutritious_'
'nov'
'notic'
'nos_'
'noncom'
'nni'
'nish'
'ninth_'
'nik'
'nh'
'nei'
'nders_'
'mongering_'
'misunderstood_'
'misrule_'
'misa'
'miniscule_'
'minimized_'
'mindsets_'
'milli'
'mil'
'menacing_'
'member'
'melt_'
'mediator_'
'manual_'
'mall_'
'mach'
'loosened_'
'logists_'
'lls_'
'liquidation_'
'linger_'
'line'
'like'
'lifesaving_'
'lifeblood_'
'life'
'libertarian_'
'leg'
'left'
'learns_'
'lay'
'laureates_'
'latecomer_'
'las'
'lant'
'kri'
'kidnapping_'
'jets_'
'jet_'
'jan'
'irresponsibility_'
'irrationality_'
'invoicing_'
'invo'
'intimidated_'
'internalized_'
'interacting_'
'intensifies_'
'intake_'
'insurer_'
'inhabit_'
'ingenious_'
'infusion_'
'inf'
'industrialists_'
'indisputable_'
'indefensible_'
'inconsistencies_'
'ina_'
'imprudent_'
'impatient_'
'imaginable_'
'im'
'illustration_'
'ile'
'idiosyncratic_'
'idealized_'
'ich_'
'hung_'
'humble_'
'ht_'
'hormones_'
'hoo'
'honors_'
'hing'
'hindrance_'
'hindered_'
'henchmen_'
'helm'
'hastily_'
'har_'
'guests_'
'guarded_'
'gruesome_'
'grudgingly_'
'grotesque_'
'grandparents_'
'grams_'
'globalizing_'
'ghosts_'
'gg'
'gel_'
'garnered_'
'ful'
'fu'
'ft'
'fringes_'
'fraying_'
'franc'
'format_'
'forgive_'
'flourished_'
'fleeting_'
'fissile_'
'festiv'
'festering_'
'feminist_'
'feckless_'
'fathom_'
'fatalities_'
'ez'
'expires_'
'exi'
'eto'
'estrangement_'
'ero'
'erl'
'ere'
'erat'
'entangled_'
'ent'
'ens_'
'ene'
'encompasses_'
'enc'
'emp'
'embarrassed_'
'eks'
'ef'
'eastward_'
'ean_'
'dump_'
'dul'
'drifting_'
'dri'
'downplay_'
'dovish_'
'dot'
'donation_'
'doldrums_'
'dogmatic_'
'dle_'
'dl'
'divorced_'
'dit'
'distinctions_'
'distill'
'distancing_'
'dispose_'
'dismissal_'
'dislocations_'
'dialogues_'
'detached_'
'designer_'
'desertification_'
'deputies_'
'deplorable_'
'departing_'
'dep'
'demography_'
'degrading_'
'defen'
'deductible_'
'decrees_'
'deco'
'deceased_'
'darkest_'
'dam'
'ct'
'crystal_'
'crying_'
'creeping_'
'credo_'
'cram'
'convincingly_'
'contending_'
'constrains_'
'consolation_'
'conducts_'
'condone_'
'competences_'
'compass_'
'colonization_'
'clamor_'
'clad_'
'churn'
'choke_'
'choke'
'cheering_'
'cheat_'
'chas'
'champ'
'censors_'
'cano'
'campuses_'
'camera_'
'calamities_'
'buybacks_'
'buttressed_'
'bugs_'
'brute_'
'brewing_'
'brethren_'
'breastfeeding_'
'breakaway_'
'break'
'branding_'
'bowl_'
'bot'
'bones_'
'bogged_'
'bluff_'
'bitterness_'
'bis'
'biotech_'
'beta_'
'besieged_'
'besar_'
'belatedly_'
'beg'
'bean_'
'bargains_'
'bag'
'bacterial_'
'az'
'autocrat_'
'atory_'
'ate'
'assi'
'assaulted_'
'ash'
'arrears_'
'armor'
'are'
'apps_'
'apa'
'antly_'
'antidote_'
'ank'
'ana_'
'ami'
'ambivalence_'
'aloof_'
'alized_'
'algorithm_'
'alarmist_'
'aks_'
'ak'
'after'
'affluence_'
'advertised_'
'adversity_'
'ado'
'admissions_'
'adjacent_'
'adj'
'adamantly_'
'adalah_'
'accrued_'
'acco'
'abd'
'Yasir_'
'Xiaochuan_'
'Whoever_'
'Want'
'Wales_'
'Volkswagen_'
'Victory_'
'Very_'
'Versailles_'
'Valéry_'
'Tsar'
'Trying_'
'Tro'
'Trip'
'Tory_'
'Tories_'
'Thinking_'
'The'
'Tennessee_'
'Tam'
'Supply_'
'Storm_'
'Stan'
'Sou'
'Sooner_'
'Sonia_'
'Solow_'
'Slow_'
'Skill'
'Sk'
'Sir_'
'Side_'
'Sher'
'Shafi'
'Sche'
'Sav'
'Sat'
'SR'
'Rod'
'Resource_'
'Remarkably_'
'Rein'
'Region_'
'Reality_'
'Ramaphosa_'
'Raj'
'Rafael_'
'Que'
'Py'
'Programs_'
'Pont'
'Plu'
'Peshawar_'
'Paraguay_'
'Para'
'Pala'
'PPPs_'
'PN'
'Oxfam_'
'Overcoming_'
'Oscar_'
'Observers_'
'OM'
'Nutrition_'
'Northwestern_'
'Nic'
'Nevada_'
'Neu'
'Nasrallah_'
'Nas'
'NSA_'
'NP'
'NB'
'Musk_'
'Mousavi_'
'Moon_'
'Monday_'
'Mon'
'Moment_'
'Mine'
'Micro_'
'Michel'
'Mel'
'Medi'
'McDonald_'
'Mauricio_'
'Marcos_'
'Mara'
'Manafort_'
'Mala'
'Mah'
'LL'
'Kuomintang_'
'Kor'
'Key_'
'Ken'
'Kat'
'Kaczynski_'
'Jin'
'Jawaharlal_'
'Jared_'
'Jan'
'Irving_'
'Inf'
'Inevitably_'
'Indo_'
'Inclusion_'
'Imp'
'Ill'
'ICA'
'His'
'Hirschman_'
'Health'
'Havana_'
'Haruhiko_'
'Hand'
'Graham_'
'Goldstone_'
'Girls_'
'Fun'
'Front'
'Frankly_'
'Franc'
'Fore'
'For'
'Fli'
'Flemish_'
'Fixing_'
'Firms_'
'Fairtrade_'
'Failing_'
'Failed_'
'FLORENCE_'
'Exxon_'
'Eri'
'Ent'
'Enrique_'
'Eliminating_'
'EV'
'EE'
'EC'
'EBRD_'
'Durban_'
'Ds_'
'Din'
'Diego_'
'Dea'
'Daiichi_'
'Cypriots_'
'Crow'
'Cou'
'Cost_'
'Correa_'
'Consumption_'
'Connect'
'Concertación_'
'Colombians_'
'Closer_'
'Challenges_'
'Centers_'
'Catholicism_'
'Catherine_'
'Carson_'
'Capitol_'
'CC'
'Brisbane_'
'Brain_'
'Border_'
'Bolivian_'
'Bog'
'Boeing_'
'Blo'
'BR'
'BAM_'
'Average_'
'Ahn_'
'Additional_'
'Abidine_'
'Abbott_'
'AT'
'ANC_'
'AB'
'?'
'80'
'280_'
'1870_'
'187'
'181'
'170'
'17'
'115_'
')'
' − _'
' – $_'
' ­'
'â_'
'zu'
'zoo'
'zn'
'zi_'
'yingly_'
'xi'
'wrestle'
'wor'
'withholding_'
'wheels_'
'well'
'vy_'
'voracious_'
'via'
'vest'
'veni'
'veiled_'
'vegetable_'
'vanishing_'
'uti'
'usness_'
'ur'
'uptick_'
'uprooted_'
'upended_'
'unwieldy_'
'unw'
'unti'
'unsurprisingly_'
'unscrupulous_'
'unrelenting_'
'unmitigated_'
'unmatched_'
'unmanned_'
'unjustified_'
'uninterrupted_'
'unholy_'
'unforeseeable_'
'unfolds_'
'undisputed_'
'underwriting_'
'ultimatum_'
'ud_'
'tyrant_'
'triangle_'
'triad_'
'tremendously_'
'tread_'
'trappings_'
'trajectories_'
'touches_'
'torment'
'tor'
'tops_'
'tooth_'
'tol'
'tional_'
'tinkering_'
'tin_'
'tick'
'thuggish_'
'thorny_'
'thirty_'
'thaw_'
'tersebut_'
'terr'
'tatters_'
'tapped_'
'tapering_'
'tantrum_'
'tailor_'
'swine_'
'swelled_'
'surgeon_'
'supermarket_'
'sucked_'
'succumbing_'
'substandard_'
'stru'
'stretches_'
'stipulated_'
'steri'
'stateless_'
'staking_'
'staffed_'
'squares_'
'spurs_'
'spurious_'
'sponsoring_'
'spokesperson_'
'splitting_'
'splinter'
'spilling_'
'spar'
'soundness_'
'soak'
'snow_'
'snow'
'sme'
'slu'
'slowest_'
'sive_'
'sin'
'sign'
'sian'
'shun_'
'shrine_'
'showcase_'
'shove_'
'sheds_'
'serial_'
'sensational_'
'seismic_'
'secretaries_'
'seconds_'
'secede_'
'seamless_'
'seam'
'screened_'
'scrapped_'
'scholarships_'
'sche'
'sati'
'sank_'
'sanity_'
'sail'
'sac'
'ruinous_'
'rt_'
'rout_'
'roller_'
'rob'
'ris'
'ridiculous_'
'rib'
'rh'
'revulsion_'
'reviewing_'
'reversible_'
'reticence_'
'retailing_'
'repri'
'repealing_'
'repatriation_'
'reor'
'renounced_'
'relic_'
'rel'
'redundancy_'
'redirected_'
'redeploy'
'rede'
'recon'
'recoil'
'recklessly_'
'reb'
'reader_'
'rde'
'rch'
'rau'
'rationalize_'
'randomly_'
'rain'
'railroads_'
'quicker_'
'qualifies_'
'py'
'putative_'
'purview_'
'purse_'
'ptions_'
'psychologist_'
'ps'
'pros'
'prick'
'prelude_'
'potatoes_'
'posting_'
'portrait_'
'portions_'
'pork_'
'poppy_'
'pollsters_'
'polled_'
'polis'
'poke'
'plumbers_'
'plateau_'
'placebo_'
'piled_'
'phe'
'perpetrator_'
'perf'
'peaking_'
'pathologies_'
'pathetic_'
'past'
'pari'
'parasites_'
'paracetamol_'
'pandering_'
'overstate_'
'outlining_'
'outline_'
'oting_'
'ost'
'orship_'
'opportunistic_'
'opera'
'onwards_'
'omics_'
'oh'
'nonpartisan_'
'niche_'
'neuros'
'nervousness_'
'negotiable_'
'nefarious_'
'needless_'
'nec'
'nearing_'
'nearest_'
'nch'
'nationalized_'
'nan'
'mushrooming_'
'muni'
'multiplied_'
'mullahs_'
'mud_'
'motivating_'
'motivates_'
'monsoon_'
'monopolistic_'
'mol'
'modus_'
'modifications_'
'miraculous_'
'minuscule_'
'mine'
'millionaires_'
'methodology_'
'mete'
'mers_'
'mercantilism_'
'mera'
'mastermind'
'manu'
'malfeasance_'
'mal_'
'lve'
'lump_'
'log'
'lk'
'literal_'
'linkage_'
'lightning_'
'liat'
'let'
'lengths_'
'lazy_'
'laugh'
'lation_'
'lapses_'
'landlocked_'
'lai'
'knowledgeable_'
'kla'
'kicked_'
'kem'
'justifiable_'
'juga_'
'jang'
'jailing_'
'irreconcilable_'
'ira'
'invoking_'
'interpret'
'internationalism_'
'internalize_'
'intensification_'
'insur'
'institutionally_'
'insect_'
'infinitely_'
'infi'
'infancy_'
'inex'
'ineffectual_'
'incidentally_'
'inalienable_'
'impractical_'
'implacable_'
'impartiality_'
'imaginary_'
'ils_'
'ila'
'igi'
'ight'
'idi'
'ided_'
'icon_'
'hyped_'
'hydro_'
'hurry_'
'housed_'
'hospitable_'
'homicide_'
'homi'
'hoarding_'
'hma'
'het'
'hes'
'harnessing_'
'hall_'
'hai'
'gui'
'green'
'grap'
'grains_'
'gin'
'geni'
'fulfills_'
'frontrunner_'
'foreseen_'
'fores'
'forbids_'
'foot'
'flung_'
'flounder'
'floors_'
'flared_'
'fixation_'
'fis'
'fifty_'
'feminists_'
'fel'
'fat'
'fascinated_'
'farmed_'
'fares_'
'fancy_'
'ey'
'experimenting_'
'expansions_'
'exhaust_'
'exe'
'excel_'
'eve'
'evaluations_'
'eter'
'establishments_'
'ess'
'erly_'
'erg'
'enti'
'enthusiasts_'
'ensue_'
'enlarging_'
'enlarge_'
'engulfing_'
'encroach'
'embolden_'
'embassies_'
'elevate_'
'electorally_'
'ecology_'
'ea_'
'dust'
'dull_'
'drill_'
'dressing_'
'downright_'
'doubles_'
'dos'
'dithering_'
'distortionary_'
'dist'
'dissipate_'
'displeasure_'
'disintegrating_'
'discernible_'
'disc'
'disarm_'
'disappears_'
'ding'
'dim'
'dh'
'detest'
'despots_'
'despised_'
'designation_'
'deserving_'
'descend_'
'depo'
'denu'
'demi'
'demagogue_'
'degenerati'
'deflect_'
'defends_'
'defender_'
'defaulting_'
'decouple_'
'dece'
'dec'
'debris_'
'day'
'dampening_'
'cynically_'
'cruel'
'crossings_'
'cross'
'cred'
'counties_'
'corrupted_'
'corresponds_'
'corporatist_'
'contraception_'
'contours_'
'conte'
'consumerism_'
'conformity_'
'confines_'
'conciliatory_'
'conceive_'
'commits_'
'commemoration_'
'colonized_'
'clu'
'closes_'
'clans_'
'cke'
'circus_'
'circuits_'
'chin'
'challengers_'
'cement'
'caveats_'
'causation_'
'causality_'
'carved_'
'capping_'
'can'
'calamitous_'
'cadres_'
'buyer_'
'buses_'
'bullish_'
'bull'
'bul'
'broadcasts_'
'breakneck_'
'breakfast_'
'boycotts_'
'bor'
'boots_'
'boomed_'
'boardroom_'
'bloodletting_'
'birthplace_'
'bill'
'bil'
'best'
'belie'
'beer_'
'beast_'
'battleground_'
'barbarism_'
'baked_'
'bag_'
'backwards_'
'awful_'
'awakened_'
'avowed_'
'auctions_'
'attendant_'
'athi'
'asto'
'artemisinin_'
'armaments_'
'ardent_'
'approving_'
'appalled_'
'animus_'
'angered_'
'angan_'
'ands_'
'ances_'
'amnesia_'
'alleviation_'
'ain'
'aide_'
'agrarian_'
'afternoon_'
'affection_'
'adventurism_'
'ador'
'adi'
'ade'
'adaptable_'
'accusation_'
'aca'
'aboard_'
'abetted_'
'Zar'
'Yi'
'Yas'
'XI'
'XDR_'
'Witness_'
'Win'
'Willi'
'Wiesel_'
'West'
'Villepin_'
'Versus_'
'Vas'
'UNHCR_'
'UNFCCC_'
'Ty'
'Turn'
'Tung_'
'Ts_'
'Trial_'
'Transformation_'
'Tower_'
'Television_'
'Talks_'
'Systems_'
'Syndrome_'
'Symp'
'Sydney_'
'Stor'
'Stalinist_'
'Species_'
'Sp'
'Sony_'
'Sikh_'
'Shadow_'
'Sartre_'
'Sarajevo_'
'Sala'
'Sad'
'SH'
'Rodrigo_'
'Rob'
'Riv'
'Risks_'
'Right'
'Rex_'
'Revolutions_'
'Resilience_'
'Repr'
'Reports_'
'Renew'
'Reforming_'
'Reaching_'
'Rand_'
'RT'
'RI_'
'Questions_'
'Qing_'
'Qa'
'Pursuing_'
'Profit'
'Produc'
'Problems_'
'Previous_'
'Post'
'Personal_'
'Perry_'
'Pemex_'
'Pay_'
'Pat'
'Papandreou_'
'Pandora_'
'PR_'
'PCA_'
'Oregon_'
'OBOR_'
'Notably_'
'Must_'
'Mothers_'
'Missing_'
'Mir'
'Mindanao_'
'Merc'
'Mellon_'
'Meiji_'
'Meetings_'
'Mashal_'
'Marshal_'
'Madonna_'
'MD'
'Ly'
'Lukashenka_'
'Luis_'
'Lords_'
'Lives_'
'Levant_'
'Lei'
'Leap_'
'LOS_'
'Ky'
'Kra'
'Kos'
'Konrad_'
'Kir'
'Khobragade_'
'Kemalist_'
'Kemal_'
'Karmapa_'
'Jibril_'
'Jew_'
'Jang_'
'Jam'
'Ing'
'Illinois_'
'IQ_'
'IPL_'
'IP'
'ICB'
'Hwang_'
'Huntington_'
'Huawei_'
'Household_'
'Hoenig_'
'Historians_'
'Herein_'
'Hanashi_'
'Hamburg_'
'Hagel_'
'HICCup_'
'Gulag_'
'Goes_'
'Gilani_'
'Generally_'
'Galbraith_'
'Gal'
'Fra'
'Fla'
'Faith_'
'FS'
'Exp'
'Except_'
'Euroskepticism_'
'Europeaniz'
'Europ'
'Eng'
'ESG_'
'Dublin_'
'Dim'
'Defenders_'
'Decades_'
'Dayton_'
'Dark_'
'Dani_'
'Dai'
'DR_'
'DE'
'Cy'
'Contract'
'Confronting_'
'Conce'
'Compounding_'
'Comp'
'Close'
'Chung_'
'Ceausescu_'
'Cata'
'Cardinal_'
'Cancún_'
'Can'
'CNN_'
'CIO_'
'CE'
'CD_'
'CBR_'
'Buddhism_'
'Bouteflika_'
'Bos'
'Bomb'
'Bol'
'Biological_'
'Bible_'
'Bengal_'
'Bang_'
'Bak'
'Bab'
'BUENOS_'
'BCB_'
'Attack'
'Arrow_'
'Aren'
'Anything_'
'Antimicrobial_'
'Anne_'
'Analysts_'
'Analysis_'
'Allah_'
'Air'
'Achilles_'
'AIRES_'
'AI'
'; “_'
'89_'
'56'
'52'
'40'
'330_'
'195_'
'1959_'
'192'
'190'
'177'
'1'
', _'
'('
'�_'
'…” _'
'º_'
' '
'zan'
'yu_'
'ypt'
'yard_'
'yam'
'xes_'
'writ_'
'wringing_'
'wrecked_'
'wrapped_'
'workweek_'
'wording_'
'wom'
'withheld_'
'winding_'
'wills_'
'wic'
'whites_'
'whip_'
'warmth_'
'warlords_'
'wa'
'vying_'
'vu_'
'vor'
'vindication_'
'vie'
'victimized_'
'vers_'
'vera'
'valley_'
'validated_'
'urbanized_'
'urat'
'upholds_'
'unspeakable_'
'unrestrained_'
'unqualified_'
'unmanageable_'
'unitary_'
'underperforming_'
'underclass_'
'ult_'
'ulation_'
'ude'
'tycoons_'
'tu_'
'tte'
'tripling_'
'trio'
'treasuries_'
'treasure_'
'treacherous_'
'trea'
'trash'
'transcending_'
'trail'
'trac'
'toxicity_'
'towers_'
'tour'
'torch_'
'tirelessly_'
'tious_'
'tif'
'thunder'
'thin'
'thicket_'
'thicke'
'ther'
'tern'
'temple_'
'temper_'
'tely_'
'taxis_'
'tam'
'tain'
'tac'
'sympathizers_'
'symmetrical_'
'sustains_'
'surrendered_'
'surfaced_'
'sung_'
'summed_'
'subordinated_'
'stripes_'
'staked_'
'springs_'
'spies_'
'specifying_'
'sowing_'
'socialized_'
'sni'
'smoke'
'smiles_'
'slo'
'situated_'
'siti'
'sisters_'
'sine_'
'side'
'sic'
'shielding_'
'sharpest_'
'server_'
'scrutinize_'
'scrap_'
'scholarship_'
'sam'
'salvage_'
'safest_'
'rub'
'rocks_'
'road'
'ripped_'
'riness_'
'rigging_'
'rf'
'revolving_'
'reverberate_'
'rethought_'
'resurrected_'
'restriction_'
'resourced_'
'repudiated_'
'repressing_'
'reprehensible_'
'repeats_'
'reorientation_'
'reopen_'
'rentier_'
'reme'
'rejuvenation_'
'reinvigorated_'
'reimburse'
'rei'
'refining_'
'receptive_'
'rebellious_'
'realizes_'
'realists_'
'rapi'
'ral'
'raison_'
'purported_'
'pumps_'
'pseudo_'
'proportionality_'
'prophet_'
'prop'
'promotions_'
'progresses_'
'prion_'
'presses_'
'preside_'
'preponderance_'
'predominance_'
'precipitation_'
'ppe'
'populace_'
'polymers_'
'politik_'
'politic'
'pole_'
'poem_'
'plutocracy_'
'plumbing_'
'pleas_'
'pipe_'
'pinpoint_'
'phy'
'pervades_'
'pertu'
'perpetually_'
'penetrated_'
'pemerintah_'
'paternalistic_'
'patch_'
'passively_'
'part'
'pare'
'pant'
'palm_'
'painstakingly_'
'overweening_'
'overshooting_'
'overshoot_'
'overs_'
'overhea'
'outperformed_'
'outperform_'
'outpacing_'
'outlawed_'
'our'
'ots_'
'opin'
'operative_'
'ope'
'ond'
'omissions_'
'ome'
'offending_'
'offenders_'
'offended_'
'offend_'
'ody'
'ock_'
'oce'
'obliges_'
'obey_'
'obedience_'
'oa'
'noxious_'
'nominees_'
'noi'
'nke'
'newborns_'
'neoliberalism_'
'neo'
'neglects_'
'necessities_'
'ncia'
'nano'
'nab'
'myopic_'
'multipolarity_'
'multip'
'mouse_'
'modesty_'
'moderating_'
'mn'
'mme'
'mixing_'
'miserably_'
'mis_'
'milder_'
'mie'
'mic'
'meticulous_'
'mereka_'
'merchants_'
'memper'
'memoir_'
'memb'
'meddle'
'meanings_'
'meaningfully_'
'mati'
'mates_'
'materially_'
'mart'
'mann_'
'mang'
'maneuvering_'
'malls_'
'magical_'
'lusi'
'lured_'
'loophole_'
'log_'
'locking_'
'loathing_'
'lis_'
'lineage_'
'lica'
'lers_'
'lecti'
'lar_'
'languishing_'
'land'
'lamentable_'
'laden_'
'kni'
'kilowatt_'
'kar'
'journalistic_'
'jeopardizes_'
'jecti'
'ject'
'jaw'
'ito'
'iting_'
'iss'
'ison_'
'isla'
'ise'
'irrespective_'
'involuntary_'
'inventing_'
'interplay_'
'intermediary_'
'interfering_'
'interc'
'interactive_'
'insults_'
'insulting_'
'instruct'
'inis'
'inhibit'
'inflamed_'
'indulge_'
'incorporation_'
'inch_'
'inan'
'inad'
'inaccessible_'
'illiquidity_'
'ignited_'
'ignite_'
'ifying_'
'ient'
'id'
'icddr_'
'ibi'
'iate'
'husbands_'
'hus'
'http_'
'house'
'hotspots_'
'horses_'
'horns_'
'homelands_'
'hockey_'
'hijra_'
'heterogeneous_'
'hetero'
'herd_'
'help'
'heeded_'
'haves_'
'hated_'
'hasty_'
'guys_'
'guides_'
'gru'
'grinding_'
'grey_'
'gravitate_'
'grande'
'glue_'
'glaringly_'
'gin_'
'geoengineering_'
'gent_'
'gel'
'gat'
'garner_'
'gam'
'gallon_'
'fuss_'
'furniture_'
'furnish'
'fun'
'fruitless_'
'forebears_'
'force'
'fli'
'flesh_'
'flash'
'filtering_'
'fills_'
'figured_'
'fencing_'
'fea'
'fascists_'
'fame_'
'falter_'
'factored_'
'fa_'
'ext'
'exposures_'
'exponential_'
'explanatory_'
'expatriate_'
'examinations_'
'estranged_'
'essi'
'esse'
'espouse_'
'esi'
'ert'
'erstwhile_'
'eras_'
'epochal_'
'envisages_'
'enraged_'
'enhancement_'
'enf'
'endogenous_'
'ench'
'enablers_'
'emitter_'
'emits_'
'eminently_'
'ements_'
'elling_'
'elevating_'
'ekonomi_'
'ek'
'ei_'
'eh'
'egi'
'edness_'
'edifice_'
'eco_'
'eate'
'ean'
'ead'
'dug_'
'dreadful_'
'drained_'
'documentation_'
'ditch_'
'disunity_'
'disseminate_'
'dispersion_'
'dispens'
'dispel_'
'diso'
'dismemberment_'
'disma'
'discrepancies_'
'discreet_'
'discounts_'
'dis_'
'dine'
'dil'
'dig'
'dietary_'
'dichotomy_'
'detain_'
'descend'
'derision_'
'deregulated_'
'dental_'
'denominator_'
'demon'
'delusions_'
'delegating_'
'defies_'
'decreases_'
'deceive_'
'deca'
'debatable_'
'deadliest_'
'dampened_'
'damned_'
'curat'
'ctive_'
'crusade_'
'cro'
'credence_'
'crave_'
'crashing_'
'cracy_'
'court'
'countrymen_'
'counterparties_'
'counterf'
'counseling_'
'cosmopolitanism_'
'corpus_'
'cop_'
'cop'
'container'
'conse'
'cons_'
'conflagration_'
'confer_'
'conduit_'
'concealed_'
'conce'
'complements_'
'companion_'
'come'
'combinations_'
'colony_'
'codified_'
'codependency_'
'cock'
'coalesce_'
'clampdown_'
'civility_'
'citation_'
'circuses_'
'chunk_'
'cher'
'cheered_'
'cheapest_'
'chat_'
'chase_'
'chaebol_'
'centimeters_'
'centi'
'caveat_'
'caucus_'
'carve_'
'carte_'
'caricature_'
'candle'
'calmed_'
'cab'
'buoyant_'
'bunch_'
'bright'
'bridging_'
'breached_'
'boxes_'
'bonanza_'
'blackouts_'
'bert'
'belligerent_'
'beh'
'begging_'
'bask'
'basics_'
'bankroll'
'ballooning_'
'backwardness_'
'backer_'
'avail_'
'authorizing_'
'auris_'
'aura_'
'augmenting_'
'athlete_'
'aster'
'asing_'
'arm'
'arduous_'
'ara_'
'appropriated_'
'appo'
'applicant_'
'appease'
'ante'
'anointed_'
'anni'
'animosities_'
'anchoring_'
'amorphous_'
'alienating_'
'aka'
'aj'
'ained_'
'ailments_'
'affirming_'
'affirmation_'
'acclaim_'
'abstain_'
'abnormally_'
'Zemin_'
'ZURICH_'
'Yunnan_'
'Yuliya_'
'YA'
'Westminster_'
'Well'
'Warming_'
'Wall'
'Villages_'
'Village_'
'Vichy_'
'Values_'
'Vac'
'Unre'
'UNEP_'
'UNCLOS_'
'Turk'
'Tol'
'Tin'
'Thin'
'Term_'
'Temp'
'Temer_'
'Tele'
'Tas'
'Tariffs_'
'Tackling_'
'Ségolène_'
'Sy'
'Swat_'
'Sustainability_'
'Surveys_'
'Students_'
'Sto'
'Steven_'
'Socrates_'
'Societies_'
'Sle'
'Shias_'
'Shenyang_'
'Shakespeare_'
'Sex_'
'Seri'
'Seed_'
'Sector_'
'Scho'
'Scha'
'Sau'
'Salafi_'
'SP'
'Rwandan_'
'Rust_'
'Run'
'Resolving_'
'Repa'
'Renewable_'
'Rei'
'Ree'
'Reconciliation_'
'Rat'
'Radio_'
'Qu'
'Qi'
'Push'
'Protectionism_'
'Prop'
'Probably_'
'Preventing_'
'Power'
'Potential_'
'Pollut'
'Pil'
'Philosoph'
'Pessimists_'
'Pers'
'Pan_'
'PRC_'
'PO_'
'PMI_'
'Oval_'
'Originally_'
'Organizations_'
'Op'
'Oman_'
'OS'
'Nine_'
'Neves_'
'Net_'
'Neill_'
'Negative_'
'Nam'
'Mundell_'
'Moore_'
'Moody_'
'Miracle_'
'Means_'
'Mazowiecki_'
'May'
'Massacre_'
'Map_'
'Malta_'
'Magnitsky_'
'Lugovoi_'
'Luddites_'
'Liber'
'Lia'
'Lev'
'Lavrov_'
'Lab'
'LU'
'LNG_'
'Koreas_'
'Klaus_'
'Kash'
'Kansas_'
'Kaiser_'
'KAR'
'KA'
'Jud'
'Jeff_'
'Jal'
'JOHANNESBURG_'
'Islamization_'
'Ins'
'Indira_'
'Ina'
'Impr'
'Implementing_'
'Ic'
'Hub'
'Houthi_'
'Households_'
'Hormuz_'
'Homeland_'
'Herzog_'
'Hensarling_'
'Henrique_'
'Hell'
'Head'
'Has'
'Haitian_'
'Had'
'Gri'
'Gor'
'Gla'
'Georgians_'
'GI'
'Funds_'
'Fossil_'
'Flu'
'Final_'
'Filipinos_'
'Fah'
'FP'
'FO'
'FCTC_'
'Expectations_'
'Era_'
'Electricity_'
'Edmund_'
'Ec'
'EU'
'ES'
'ER_'
'EF'
'Duterte_'
'Duke_'
'Diss'
'Diplomats_'
'Diplomatic_'
'Dimon_'
'Differences_'
'Dealing_'
'Dal'
'DA_'
'Cu'
'Coordination_'
'Cond'
'Computer'
'Composite_'
'Com'
'Cola_'
'Col_'
'Cher'
'Cheap_'
'Chamber_'
'Carta_'
'Cannes_'
'Calling_'
'Cali'
'Caesar_'
'Cabinet_'
'CSU_'
'COP21_'
'CITES_'
'CF'
'CE_'
'CAP_'
'CANBERRA_'
'Burning_'
'Bulgarian_'
'Bud'
'Black'
'Bihar_'
'Beppe_'
'Beat'
'Basin_'
'Bah'
'BT'
'BSE_'
'Aziz_'
'Ava'
'Au'
'Atatürk_'
'Ast'
'Assa'
'Areas_'
'Antonio_'
'Anderson_'
'Andean_'
'Anc'
'Alesina_'
'Alawites_'
'AfDB_'
'Admiral_'
'Admati_'
'Adjustment_'
'Add'
'Act'
'Aceh_'
'Acc'
'AU_'
'AQ'
'://_'
'75'
'48'
'41'
'360_'
'215_'
'1954_'
'1934_'
'15th_'
'13'
'12'
'.   _'
'+'
'"'
'!) _'
'! _'
' ('
' % _'
'zz_'
'zar'
'xit'
'xia'
'worldviews_'
'workshops_'
'withdrawals_'
'wired_'
'willfully_'
'wilderness_'
'wild'
'whe'
'wedding_'
'wastage_'
'volunteer_'
'voi'
'vocabulary_'
'visitor_'
'viewpoint_'
'verifiable_'
'verdicts_'
'venues_'
'venerable_'
'ven_'
'variability_'
'vanguard_'
'validation_'
'vaccinations_'
'usa'
'upp'
'updating_'
'unt'
'unsustainably_'
'unsuccessfully_'
'unspoken_'
'unsavory_'
'unpredictability_'
'unpa'
'unin'
'unheard_'
'underwent_'
'understated_'
'underg'
'uncomp'
'unaccountable_'
'unac'
'ud'
'tz'
'twofold_'
'turf_'
'tudes_'
'tter_'
'trustworthy_'
'triumphed_'
'trilemma_'
'tria'
'trending_'
'travels_'
'transitory_'
'trait_'
'towering_'
'touting_'
'tia'
'throats_'
'thrived_'
'thrall_'
'thinly_'
'theology_'
'terminal_'
'telephony_'
'teamed_'
'taw'
'tail'
'tacitly_'
'symmetry_'
'switch'
'swan_'
'surfe'
'surest_'
'superiors_'
'sunny_'
'substituted_'
'stun'
'stumbled_'
'streamlined_'
'sted_'
'statisticians_'
'statistically_'
'standardiz'
'stalls_'
'stalling_'
'sse'
'squad_'
'squabbles_'
'spurn'
'sporadic_'
'spokesman_'
'speeding_'
'sparsely_'
'solidify_'
'softened_'
'slew_'
'slaughtered_'
'skew_'
'sk_'
'silicon_'
'silencing_'
'signify_'
'sidelined_'
'shrines_'
'shred'
'shouting_'
'sew'
'seminar_'
'sely_'
'seductive_'
'secretariat_'
'scrambling_'
'scarred_'
'scares_'
'sc'
'sat'
'sand'
'salience_'
'saber_'
'rollout_'
'robustness_'
'robotic_'
'roar'
'riven_'
'right'
'rig_'
'rid'
'rici'
'ria_'
'reverted_'
'reversals_'
'rev'
'retailer_'
'reshaped_'
'rescues_'
'rer'
'requesting_'
'repos'
'replica'
'replay_'
'repaying_'
'rena'
'relieving_'
'rejoin_'
'rejoice_'
'reins_'
'reignite_'
'reestablish'
'recount_'
'rebuke_'
'rebates_'
'reassess_'
'real'
'rc'
'rbe'
'quent'
'py_'
'puppet_'
'protectionists_'
'proponent_'
'progressives_'
'progressing_'
'professed_'
'prizes_'
'predictor_'
'precipitating_'
'pragmatists_'
'ppl'
'potency_'
'portend_'
'ponder'
'pon'
'poll'
'poisoning_'
'poc'
'plebiscite_'
'plank'
'plains_'
'pits_'
'pests_'
'pes_'
'performer_'
'peng'
'peddle'
'payouts_'
'pathological_'
'pathogen_'
'palatable_'
'overthrowing_'
'overrun_'
'override_'
'overplay'
'overland_'
'outspoken_'
'outnumber_'
'outdo'
'ous'
'otic'
'osphere_'
'oran'
'optimize_'
'optimist_'
'optim'
'opa'
'onic_'
'ong_'
'olla'
'olive_'
'ois'
'oils_'
'ogi'
'ogen'
'ocracy_'
'obstructi'
'obat'
'novelty_'
'nourished_'
'nonproliferation_'
'nonp'
'nna'
'nk_'
'nity_'
'nim'
'nie'
'nf'
'networked_'
'nest_'
'nest'
'nerves_'
'need'
'neat_'
'mutated_'
'mounts_'
'motor'
'moth'
'mosquitos_'
'moods_'
'monopoliz'
'monarch_'
'modernized_'
'misperceptions_'
'misgivings_'
'mirrored_'
'mini'
'militaristic_'
'microc'
'mic_'
'merged_'
'mentioning_'
'medi'
'masks_'
'mas_'
'marketed_'
'marching_'
'manifestly_'
'mammals_'
'malady_'
'makeup_'
'mad'
'lla_'
'll'
'lism_'
'ling'
'libraries_'
'legion_'
'laggards_'
'ku_'
'kt'
'key'
'kelompok_'
'keenly_'
'kas'
'kal'
'justly_'
'jungle_'
'ivi'
'itu'
'istically_'
'ism'
'ishness_'
'irregular_'
'iron'
'introduces_'
'interventionism_'
'intervals_'
'internecine_'
'interlocutor_'
'intellect_'
'insularity_'
'installing_'
'inhumane_'
'inhibiting_'
'ineffectiveness_'
'indulging_'
'indictments_'
'incorr'
'inconsequential_'
'incon'
'inclinations_'
'inching_'
'imploded_'
'implements_'
'imperi'
'impenetrable_'
'impeccable_'
'imaginative_'
'ill'
'ific'
'ient_'
'ien'
'ident'
'icit'
'ic'
'ial'
'hydr'
'humiliate_'
'hum'
'hovers_'
'honorable_'
'honeymoon_'
'homogenous_'
'ho_'
'hin_'
'hee_'
'hee'
'headscarves_'
'haz'
'hawk_'
'haul_'
'harsher_'
'hange'
'hampers_'
'hammered_'
'hacked_'
'gripping_'
'grind_'
'greening_'
'gravitational_'
'gratitude_'
'grati'
'grandstanding_'
'grandson_'
'good'
'glu'
'gloss'
'glamorous_'
'giga'
'gia'
'garments_'
'gard'
'furt'
'freezing_'
'franchise_'
'fragment_'
'fortified_'
'forg'
'footage_'
'flouting_'
'flimsy_'
'fle'
'flash_'
'flare_'
'flagship_'
'firestorm_'
'final'
'fili'
'fid'
'fiat_'
'fertilization_'
'ferocious_'
'fen'
'fee'
'fascination_'
'fac'
'ez_'
'eye'
'exuberant_'
'extinguished_'
'expansionism_'
'exogenous_'
'exo'
'exert'
'exaggeration_'
'evokes_'
'evaporated_'
'eu_'
'etic'
'ete'
'eso'
'eschewed_'
'esc'
'erson_'
'erroneous_'
'erred_'
'erc'
'eous_'
'eo_'
'envi'
'entrust'
'eno'
'eness_'
'energize_'
'ener'
'endorse'
'emphatically_'
'elicited_'
'eki'
'ege'
'editing_'
'edit'
'edges_'
'ed'
'ection'
'eaten_'
'duly_'
'duk'
'drying_'
'dru'
'draining_'
'drachma_'
'doves_'
'dor'
'doping_'
'dop'
'doms_'
'dom'
'dissimilar_'
'disseminated_'
'dispense_'
'disorient'
'disintegrate_'
'disincentives_'
'disin'
'discrete_'
'disagrees_'
'dina'
'diluted_'
'diligence_'
'dic'
'devaluing_'
'devalued_'
'deters_'
'detecting_'
'detect'
'deserted_'
'deri'
'depos'
'deported_'
'dented_'
'demons_'
'democrat_'
'dei'
'degenerate_'
'deem_'
'decor'
'cures_'
'ctiv'
'cryptocurrencies_'
'creator_'
'cradle_'
'cracked_'
'coward'
'counterterrorism_'
'costlier_'
'cosmopolitans_'
'contr'
'consulting_'
'constellation_'
'conscript'
'confidential_'
'complication_'
'compl'
'competencies_'
'commercialization_'
'commence'
'comedian_'
'combat'
'cohorts_'
'coaster_'
'coach_'
'clue_'
'cloth_'
'climates_'
'cliché_'
'cleavage_'
'circumstance_'
'cious_'
'chiefs_'
'cheerleaders_'
'cheated_'
'chau'
'chasm_'
'chant'
'chal'
'chai'
'chaf'
'certainties_'
'centenary_'
'ceded_'
'cautioned_'
'cautionary_'
'categorical_'
'cataly'
'careless_'
'campus_'
'calming_'
'calendar_'
'burner_'
'bulldoze'
'buffeted_'
'bribed_'
'breakers_'
'bras'
'brakes_'
'bourgeois_'
'bots_'
'booki'
'bomber_'
'blogger_'
'blink'
'bled_'
'blacks_'
'bisa_'
'bids_'
'berr'
'berk'
'bera'
'belts_'
'behest_'
'beg_'
'bee'
'beach_'
'basins_'
'barrage_'
'barracks_'
'bark_'
'bantuan_'
'ballooned_'
'ay'
'avenue_'
'authenticity_'
'audacity_'
[...]
